const unsigned char model[] = {
  0x1c, 0x00, 0x00, 0x00, 0x54, 0x46, 0x4c, 0x33, 0x14, 0x00, 0x20, 0x00,
  0x1c, 0x00, 0x18, 0x00, 0x14, 0x00, 0x10, 0x00, 0x0c, 0x00, 0x00, 0x00,
  0x08, 0x00, 0x04, 0x00, 0x14, 0x00, 0x00, 0x00, 0x1c, 0x00, 0x00, 0x00,
  0x90, 0x00, 0x00, 0x00, 0xe8, 0x00, 0x00, 0x00, 0x78, 0x5a, 0x00, 0x00,
  0x88, 0x5a, 0x00, 0x00, 0x44, 0x60, 0x00, 0x00, 0x03, 0x00, 0x00, 0x00,
  0x01, 0x00, 0x00, 0x00, 0x10, 0x00, 0x00, 0x00, 0x00, 0x00, 0x0a, 0x00,
  0x10, 0x00, 0x0c, 0x00, 0x08, 0x00, 0x04, 0x00, 0x0a, 0x00, 0x00, 0x00,
  0x0c, 0x00, 0x00, 0x00, 0x1c, 0x00, 0x00, 0x00, 0x38, 0x00, 0x00, 0x00,
  0x0f, 0x00, 0x00, 0x00, 0x73, 0x65, 0x72, 0x76, 0x69, 0x6e, 0x67, 0x5f,
  0x64, 0x65, 0x66, 0x61, 0x75, 0x6c, 0x74, 0x00, 0x01, 0x00, 0x00, 0x00,
  0x04, 0x00, 0x00, 0x00, 0x98, 0xff, 0xff, 0xff, 0x0a, 0x00, 0x00, 0x00,
  0x04, 0x00, 0x00, 0x00, 0x07, 0x00, 0x00, 0x00, 0x64, 0x65, 0x6e, 0x73,
  0x65, 0x5f, 0x32, 0x00, 0x01, 0x00, 0x00, 0x00, 0x04, 0x00, 0x00, 0x00,
  0x6a, 0xa5, 0xff, 0xff, 0x04, 0x00, 0x00, 0x00, 0x0b, 0x00, 0x00, 0x00,
  0x64, 0x65, 0x6e, 0x73, 0x65, 0x5f, 0x69, 0x6e, 0x70, 0x75, 0x74, 0x00,
  0x02, 0x00, 0x00, 0x00, 0x34, 0x00, 0x00, 0x00, 0x04, 0x00, 0x00, 0x00,
  0xdc, 0xff, 0xff, 0xff, 0x0d, 0x00, 0x00, 0x00, 0x04, 0x00, 0x00, 0x00,
  0x13, 0x00, 0x00, 0x00, 0x43, 0x4f, 0x4e, 0x56, 0x45, 0x52, 0x53, 0x49,
  0x4f, 0x4e, 0x5f, 0x4d, 0x45, 0x54, 0x41, 0x44, 0x41, 0x54, 0x41, 0x00,
  0x08, 0x00, 0x0c, 0x00, 0x08, 0x00, 0x04, 0x00, 0x08, 0x00, 0x00, 0x00,
  0x0c, 0x00, 0x00, 0x00, 0x04, 0x00, 0x00, 0x00, 0x13, 0x00, 0x00, 0x00,
  0x6d, 0x69, 0x6e, 0x5f, 0x72, 0x75, 0x6e, 0x74, 0x69, 0x6d, 0x65, 0x5f,
  0x76, 0x65, 0x72, 0x73, 0x69, 0x6f, 0x6e, 0x00, 0x0e, 0x00, 0x00, 0x00,
  0x8c, 0x59, 0x00, 0x00, 0x84, 0x59, 0x00, 0x00, 0x38, 0x59, 0x00, 0x00,
  0x1c, 0x59, 0x00, 0x00, 0x44, 0x58, 0x00, 0x00, 0x34, 0x0d, 0x00, 0x00,
  0x6c, 0x01, 0x00, 0x00, 0xa8, 0x00, 0x00, 0x00, 0xa0, 0x00, 0x00, 0x00,
  0x98, 0x00, 0x00, 0x00, 0x90, 0x00, 0x00, 0x00, 0x88, 0x00, 0x00, 0x00,
  0x68, 0x00, 0x00, 0x00, 0x04, 0x00, 0x00, 0x00, 0x1a, 0xa6, 0xff, 0xff,
  0x04, 0x00, 0x00, 0x00, 0x54, 0x00, 0x00, 0x00, 0x0c, 0x00, 0x00, 0x00,
  0x08, 0x00, 0x0e, 0x00, 0x08, 0x00, 0x04, 0x00, 0x08, 0x00, 0x00, 0x00,
  0x10, 0x00, 0x00, 0x00, 0x24, 0x00, 0x00, 0x00, 0x00, 0x00, 0x06, 0x00,
  0x08, 0x00, 0x04, 0x00, 0x06, 0x00, 0x00, 0x00, 0x04, 0x00, 0x00, 0x00,
  0x00, 0x00, 0x00, 0x00, 0x00, 0x00, 0x0a, 0x00, 0x10, 0x00, 0x0c, 0x00,
  0x08, 0x00, 0x04, 0x00, 0x0a, 0x00, 0x00, 0x00, 0x02, 0x00, 0x00, 0x00,
  0x02, 0x00, 0x00, 0x00, 0x04, 0x00, 0x00, 0x00, 0x06, 0x00, 0x00, 0x00,
  0x32, 0x2e, 0x31, 0x31, 0x2e, 0x30, 0x00, 0x00, 0x7a, 0xa6, 0xff, 0xff,
  0x04, 0x00, 0x00, 0x00, 0x10, 0x00, 0x00, 0x00, 0x31, 0x2e, 0x35, 0x2e,
  0x30, 0x00, 0x00, 0x00, 0x00, 0x00, 0x00, 0x00, 0x00, 0x00, 0x00, 0x00,
  0x88, 0xa1, 0xff, 0xff, 0x8c, 0xa1, 0xff, 0xff, 0x90, 0xa1, 0xff, 0xff,
  0x94, 0xa1, 0xff, 0xff, 0xa6, 0xa6, 0xff, 0xff, 0x04, 0x00, 0x00, 0x00,
  0xb4, 0x00, 0x00, 0x00, 0xd3, 0x83, 0xfc, 0xbe, 0xe8, 0xdb, 0x19, 0x3f,
  0xcd, 0x80, 0x33, 0x3d, 0xbc, 0xe8, 0x54, 0xbf, 0x0b, 0xbc, 0x36, 0xbf,
  0x86, 0x46, 0x13, 0xbe, 0xab, 0xa4, 0xc2, 0x3e, 0x88, 0x8b, 0xcd, 0x3d,
  0x55, 0xeb, 0x80, 0xbf, 0x4d, 0x54, 0xdb, 0x3c, 0x22, 0x40, 0xdc, 0x3e,
  0x31, 0xab, 0x1d, 0xbe, 0x2f, 0x86, 0xcf, 0x3d, 0x50, 0xc1, 0xf0, 0x3e,
  0x4b, 0x57, 0xa9, 0x3e, 0x03, 0x33, 0x40, 0x3e, 0x0f, 0x13, 0xaa, 0x3e,
  0x09, 0xef, 0x85, 0x3f, 0xb8, 0xb2, 0x56, 0x3e, 0x3c, 0xda, 0x1b, 0xbe,
  0x60, 0x0f, 0x3f, 0xbd, 0x41, 0xaf, 0x86, 0xbf, 0xa7, 0x95, 0xe2, 0xbe,
  0xdf, 0x3c, 0x9e, 0x3f, 0x71, 0xa3, 0xcb, 0xbd, 0xc4, 0x7f, 0x1e, 0xbe,
  0x8a, 0x08, 0xb2, 0xbf, 0xc5, 0xc0, 0x21, 0x3e, 0xe4, 0xf0, 0x40, 0xbe,
  0xa5, 0x16, 0xbb, 0xbc, 0xa5, 0x64, 0xad, 0xbf, 0x70, 0x31, 0x46, 0xbf,
  0x8f, 0x86, 0x75, 0xbf, 0xaf, 0x8a, 0x37, 0x3f, 0x52, 0x6c, 0x26, 0x3f,
  0x70, 0xa0, 0x18, 0x3e, 0xe9, 0xf7, 0x80, 0x3f, 0x80, 0xff, 0x0c, 0xbf,
  0xdd, 0x39, 0x98, 0xbe, 0xa2, 0xdb, 0x25, 0xbd, 0x3e, 0xc5, 0x0e, 0x3f,
  0x96, 0x14, 0x8a, 0x3f, 0x03, 0xf1, 0x95, 0xbe, 0x45, 0x58, 0xbc, 0xbe,
  0x65, 0x00, 0xc5, 0xbe, 0x66, 0xa7, 0xff, 0xff, 0x04, 0x00, 0x00, 0x00,
  0xb8, 0x0b, 0x00, 0x00, 0x26, 0x18, 0x60, 0x3c, 0xf9, 0x9d, 0x6b, 0x3e,
  0x10, 0x71, 0xfa, 0x3c, 0xb5, 0xaf, 0xd2, 0x3e, 0x92, 0x04, 0x84, 0x3e,
  0x3e, 0xba, 0x8e, 0x3e, 0x3e, 0x97, 0xef, 0xbd, 0x63, 0x40, 0xbc, 0x3e,
  0x29, 0x2e, 0x39, 0x3e, 0xe1, 0xd1, 0x5e, 0xbe, 0xe8, 0x3d, 0x7c, 0xbd,
  0x56, 0x46, 0x75, 0xbe, 0x71, 0xf1, 0x96, 0x3e, 0x67, 0x48, 0x22, 0xbe,
  0x09, 0x34, 0x20, 0xbe, 0xda, 0xd3, 0x99, 0xbe, 0x3b, 0x7f, 0x93, 0x3d,
  0xb5, 0xe5, 0x98, 0xbe, 0x24, 0x9b, 0x93, 0x3e, 0xd9, 0x26, 0x4e, 0xbe,
  0xfe, 0xc8, 0x5c, 0xbe, 0x50, 0x8c, 0xac, 0xbc, 0xbf, 0x2c, 0x05, 0xbe,
  0xf8, 0xf3, 0x4b, 0xbe, 0x96, 0x62, 0x29, 0x3e, 0x6e, 0x7c, 0x15, 0xbf,
  0x4b, 0x57, 0x1f, 0xbf, 0xec, 0x2a, 0xc7, 0x3e, 0x4c, 0x74, 0x50, 0xbe,
  0xc7, 0xd9, 0xf1, 0x3d, 0x48, 0xe3, 0x58, 0xbe, 0x4e, 0xda, 0x28, 0xbf,
  0xfa, 0xc6, 0xa5, 0x3e, 0xb0, 0x24, 0x33, 0x3d, 0xe9, 0xe9, 0xb1, 0x3e,
  0xdc, 0x41, 0x07, 0x3e, 0x65, 0x63, 0x67, 0x3e, 0xac, 0xfb, 0x7d, 0x3e,
  0x66, 0x0a, 0x61, 0xbe, 0xcc, 0x43, 0xd1, 0x3d, 0x38, 0xba, 0x6d, 0x3e,
  0xd7, 0xf0, 0xd0, 0x3e, 0xa0, 0x47, 0x58, 0x3c, 0xf9, 0x34, 0xbc, 0xbe,
  0xe6, 0x92, 0x4b, 0xbe, 0x0a, 0x54, 0xf6, 0xbd, 0x4c, 0xb1, 0xb6, 0x3d,
  0x34, 0xf4, 0xd1, 0xbd, 0x8c, 0x89, 0x1e, 0x3d, 0x08, 0x2f, 0x7b, 0xbe,
  0xb3, 0x64, 0x66, 0x3e, 0x51, 0x01, 0x8c, 0x3e, 0x50, 0xc0, 0xce, 0xbc,
  0x8e, 0xff, 0xc5, 0x3e, 0x62, 0xdf, 0x8c, 0xbd, 0xb0, 0xab, 0x39, 0x3e,
  0xfa, 0x0f, 0x97, 0xbe, 0x7d, 0x4d, 0x57, 0xbe, 0x56, 0x4b, 0x59, 0xbe,
  0xb0, 0xe0, 0x8f, 0xbe, 0xd4, 0xb2, 0x9e, 0x3d, 0xff, 0x5f, 0xb3, 0x3d,
  0x77, 0x21, 0xc1, 0x3e, 0x60, 0x07, 0x38, 0x3d, 0x40, 0xc0, 0x85, 0x3e,
  0x64, 0x31, 0xb9, 0xbd, 0x07, 0x47, 0xbb, 0x3d, 0xe2, 0x6e, 0xec, 0xbc,
  0x84, 0x25, 0x25, 0xbe, 0x65, 0xf5, 0x6d, 0x3e, 0x7e, 0x5c, 0x51, 0xbd,
  0x5f, 0xfd, 0x89, 0x3e, 0x77, 0x68, 0xb9, 0x3e, 0x1a, 0x83, 0x5a, 0xbe,
  0x74, 0xba, 0xc9, 0x3d, 0x4e, 0xe4, 0xd6, 0xbe, 0xef, 0x1f, 0xed, 0xbe,
  0x0f, 0xef, 0xe5, 0x3e, 0x14, 0xf1, 0xa0, 0xbb, 0x53, 0x67, 0x28, 0xbe,
  0x18, 0x8d, 0x85, 0xbe, 0xef, 0xa5, 0xa4, 0xbe, 0xaf, 0xf7, 0x2d, 0xbd,
  0xa2, 0x8f, 0xf7, 0xbd, 0x85, 0x2d, 0x09, 0x3e, 0xc4, 0xa6, 0x24, 0x3f,
  0x5d, 0x61, 0x9b, 0xbd, 0x54, 0x9f, 0xbf, 0x3d, 0x9d, 0x00, 0x60, 0x3e,
  0xb7, 0xd7, 0x0a, 0xbe, 0x54, 0xb0, 0xe8, 0x3d, 0x23, 0xb7, 0xd6, 0x3e,
  0x00, 0xe5, 0x06, 0x3c, 0xa5, 0x03, 0x3a, 0xbf, 0x10, 0x55, 0x35, 0x3e,
  0x2b, 0xe6, 0x5d, 0xbe, 0xea, 0x8c, 0x9b, 0x3e, 0x20, 0x31, 0x49, 0xbe,
  0x27, 0xd4, 0xce, 0xbd, 0xda, 0xe4, 0x85, 0x3e, 0x40, 0x83, 0x46, 0x3e,
  0x0e, 0x6f, 0x9f, 0x3e, 0x43, 0x21, 0x02, 0xbe, 0x18, 0x07, 0xff, 0x3e,
  0xf7, 0x64, 0x3d, 0xbe, 0x74, 0xc8, 0x8d, 0xbe, 0x30, 0x12, 0xdf, 0x3d,
  0xfc, 0x96, 0x19, 0x3f, 0x3c, 0x20, 0x94, 0x3e, 0xae, 0x00, 0xed, 0xbd,
  0xe8, 0xdc, 0x23, 0x3d, 0x19, 0xfc, 0x58, 0x3d, 0xd4, 0x00, 0x2e, 0x3c,
  0x56, 0x45, 0x86, 0xbd, 0x7c, 0x96, 0x96, 0x3e, 0x86, 0xe6, 0x48, 0xbf,
  0x5f, 0xfc, 0xa0, 0x3e, 0x45, 0xf7, 0x90, 0xbd, 0xa4, 0x44, 0x41, 0xbe,
  0x88, 0xa4, 0x7f, 0x3e, 0xe6, 0xde, 0x7a, 0xbd, 0x23, 0x86, 0x1d, 0xbe,
  0x49, 0xf9, 0x5d, 0x3e, 0x40, 0xcc, 0xb7, 0xbb, 0xc8, 0x21, 0x44, 0xbe,
  0xea, 0x97, 0x8b, 0xbf, 0xee, 0xe5, 0x52, 0xbf, 0x51, 0x4f, 0x9c, 0x3e,
  0xda, 0x83, 0x2c, 0xbf, 0x96, 0x87, 0x69, 0xbe, 0xd0, 0x79, 0xbf, 0xbd,
  0x1c, 0x74, 0x03, 0xbf, 0xf9, 0xa9, 0x5c, 0x3e, 0x88, 0xae, 0x71, 0x3e,
  0xad, 0x16, 0xde, 0x3e, 0xa1, 0xcd, 0x5a, 0x3e, 0xb8, 0xe1, 0x6a, 0x3e,
  0x10, 0xc7, 0x68, 0x3d, 0x18, 0xb5, 0x8c, 0xbe, 0xf3, 0x4e, 0x8e, 0xbe,
  0x75, 0xcc, 0x87, 0xbe, 0xce, 0xad, 0x99, 0xbd, 0x80, 0x08, 0x4e, 0x3b,
  0x41, 0x40, 0x6c, 0xbf, 0x90, 0x4e, 0x5d, 0x3d, 0x88, 0x8b, 0x8c, 0x3e,
  0xe0, 0x2d, 0xb3, 0xbd, 0x6d, 0x08, 0x41, 0xbe, 0xf0, 0xc4, 0xf1, 0x3d,
  0xc8, 0xa0, 0xfa, 0xbd, 0x81, 0x90, 0xc5, 0xbd, 0x56, 0xac, 0x70, 0xbe,
  0x29, 0x3d, 0x4b, 0xbe, 0xc5, 0x4b, 0xcf, 0xbe, 0x92, 0x54, 0x3c, 0xbe,
  0xd0, 0x99, 0x2e, 0xbd, 0x00, 0xcc, 0x55, 0x3c, 0x8b, 0x46, 0x7a, 0xbc,
  0xcc, 0x71, 0x66, 0xbe, 0x00, 0xb5, 0x6d, 0x3b, 0x3e, 0x84, 0x4e, 0xbe,
  0xe2, 0x63, 0x20, 0x3e, 0xad, 0x6d, 0x06, 0xbe, 0x0c, 0x35, 0x7b, 0x3e,
  0x23, 0x24, 0x78, 0xbe, 0x8c, 0xf0, 0x7a, 0x3e, 0xdd, 0xf5, 0xa0, 0xbd,
  0x7a, 0x5d, 0xe5, 0x3b, 0xe9, 0xfd, 0x18, 0x3e, 0x59, 0x6d, 0xd6, 0xbd,
  0xc6, 0x29, 0x7a, 0x3d, 0x3d, 0xbd, 0x93, 0x3e, 0x9d, 0x4d, 0x18, 0xba,
  0x40, 0x8b, 0xea, 0x3c, 0x02, 0x11, 0x92, 0x3e, 0xd3, 0x5c, 0xcb, 0x3e,
  0xfa, 0x03, 0xf0, 0x3d, 0x35, 0x31, 0x7a, 0xbc, 0x51, 0x29, 0xc1, 0x3e,
  0x91, 0x2f, 0x7f, 0xbd, 0x50, 0x63, 0x9f, 0x3d, 0xb4, 0x89, 0x20, 0x3e,
  0x48, 0x65, 0x24, 0xbe, 0x65, 0x34, 0x69, 0xbe, 0xe2, 0x25, 0x10, 0x3b,
  0xd7, 0xb2, 0x20, 0xbf, 0xcf, 0xdc, 0x79, 0x3e, 0x58, 0xb2, 0x59, 0xbd,
  0xc3, 0x11, 0x37, 0x3e, 0x76, 0xc1, 0x98, 0x3e, 0xd8, 0x72, 0x26, 0x3d,
  0xc7, 0x50, 0x9a, 0x3d, 0x26, 0x6b, 0x29, 0x3e, 0xb5, 0xf3, 0xcb, 0x3e,
  0x09, 0x7d, 0x74, 0x3e, 0x5f, 0x59, 0xf5, 0xbc, 0xd8, 0xd5, 0x49, 0xbd,
  0x70, 0x81, 0x4c, 0x3e, 0x84, 0xb2, 0x1a, 0xbe, 0xc0, 0xf1, 0x58, 0xbc,
  0xfe, 0x87, 0x72, 0xbe, 0x28, 0x66, 0xd4, 0x3d, 0x74, 0x9c, 0x64, 0x3e,
  0x9a, 0x28, 0x48, 0x3e, 0x10, 0x7f, 0x40, 0x3d, 0x9e, 0x75, 0x80, 0x3e,
  0x70, 0x8f, 0xc6, 0xbd, 0x93, 0x80, 0x30, 0x3f, 0xf3, 0x97, 0xf3, 0x3b,
  0x20, 0x21, 0x4d, 0x3e, 0xf8, 0x14, 0x35, 0x3d, 0x8f, 0x46, 0x4b, 0x3d,
  0xcd, 0xb3, 0x14, 0xbe, 0xc6, 0x4f, 0xa2, 0xbd, 0xc1, 0xf8, 0xe9, 0xbc,
  0x71, 0xed, 0xa3, 0x3e, 0xb6, 0xc0, 0xba, 0xbd, 0x11, 0x61, 0x77, 0x3e,
  0x0a, 0x84, 0x8f, 0x3b, 0x48, 0x9c, 0xbd, 0x3d, 0x9e, 0xa7, 0x4f, 0xbe,
  0x61, 0x94, 0xa1, 0xbc, 0x17, 0xa9, 0x2d, 0x3e, 0x38, 0x0f, 0xad, 0x3d,
  0x3c, 0xb1, 0x15, 0x3e, 0xde, 0x1f, 0x1e, 0x3f, 0x38, 0x9c, 0xad, 0x3e,
  0x99, 0x9f, 0xa9, 0xbe, 0xf4, 0xe5, 0x92, 0x3e, 0x6f, 0x1b, 0x8c, 0x3e,
  0xdb, 0x09, 0x84, 0xbe, 0x51, 0xf1, 0x0b, 0x3f, 0xbe, 0xb6, 0x28, 0x3e,
  0xcb, 0x1c, 0x0d, 0xbe, 0x62, 0x96, 0x1b, 0xbe, 0x49, 0x64, 0xed, 0xbd,
  0x91, 0xfb, 0x95, 0xbe, 0xc4, 0xcd, 0x53, 0xbe, 0x04, 0xe5, 0x54, 0x3e,
  0xac, 0x32, 0x23, 0x3e, 0x90, 0x83, 0x56, 0xbd, 0x5b, 0xce, 0xec, 0xbc,
  0x48, 0x64, 0x41, 0xbd, 0x98, 0xa4, 0x38, 0x3f, 0xb3, 0xd9, 0x44, 0xbc,
  0x2c, 0x8d, 0x7e, 0xbd, 0x2c, 0x6f, 0xa6, 0x3d, 0x4c, 0x7a, 0x8d, 0x3d,
  0x35, 0x10, 0xa7, 0xbd, 0x7c, 0x07, 0x42, 0x3e, 0x9f, 0x5b, 0x72, 0xbe,
  0x82, 0xcf, 0xa9, 0xbd, 0xc0, 0x3a, 0x5c, 0xbe, 0xa6, 0x19, 0xd2, 0xbd,
  0x40, 0xc5, 0x41, 0x3e, 0x76, 0x4c, 0xf8, 0xbd, 0x2e, 0xa7, 0x47, 0x3e,
  0xf0, 0x36, 0x53, 0xbe, 0x48, 0x3f, 0x13, 0x3e, 0xdf, 0x73, 0x89, 0xbe,
  0x21, 0x25, 0x8c, 0xbe, 0x60, 0xc5, 0xfd, 0x3d, 0x12, 0x68, 0x3c, 0xbe,
  0xc0, 0xd2, 0xb5, 0xbb, 0x4a, 0x2e, 0x2e, 0x3e, 0xa8, 0x3e, 0x95, 0xbe,
  0xbc, 0x4c, 0x77, 0xbe, 0x7c, 0x3d, 0x92, 0xbe, 0x88, 0x44, 0xd7, 0xbd,
  0x1c, 0xf0, 0x4a, 0x3e, 0x44, 0xd4, 0xa0, 0x3d, 0x4e, 0xca, 0x0a, 0x3e,
  0x20, 0xae, 0x22, 0x3c, 0xb1, 0xed, 0x86, 0xbe, 0x87, 0x68, 0x9a, 0xbe,
  0x30, 0x0a, 0x76, 0x3e, 0xae, 0x21, 0xca, 0xbd, 0xc8, 0x0f, 0x7a, 0xbd,
  0x24, 0x12, 0x98, 0x3e, 0x08, 0xa3, 0x94, 0x3e, 0x54, 0xb3, 0x87, 0x3d,
  0x84, 0x7c, 0x81, 0xbe, 0x74, 0x20, 0x90, 0xbe, 0xf5, 0x5a, 0x27, 0xbe,
  0xfe, 0xf5, 0x9c, 0xbd, 0x47, 0xd4, 0x83, 0xbe, 0x6a, 0x21, 0xb7, 0xbd,
  0xac, 0x44, 0x58, 0x3e, 0x20, 0xf9, 0x7a, 0x3e, 0xb8, 0xbe, 0x03, 0x3d,
  0xc4, 0xe8, 0x91, 0x3e, 0x1c, 0x5e, 0x4b, 0x3e, 0x98, 0x3e, 0x87, 0xbe,
  0x40, 0x41, 0xfa, 0x3c, 0x70, 0xfc, 0x98, 0x3e, 0x40, 0x8e, 0x05, 0x3c,
  0x40, 0xef, 0x0d, 0xbd, 0x6a, 0xee, 0x40, 0xbe, 0x79, 0x62, 0x92, 0xbe,
  0xf5, 0xf5, 0x35, 0xbe, 0x76, 0xb4, 0x85, 0xbe, 0x48, 0x2e, 0xc6, 0x3d,
  0x24, 0xa9, 0x5e, 0x3e, 0x1c, 0xe3, 0xa0, 0xbe, 0x08, 0x56, 0xee, 0x3d,
  0x2e, 0x26, 0x26, 0xbe, 0x60, 0x9f, 0x51, 0xbc, 0x13, 0x99, 0x37, 0xbf,
  0xc8, 0x01, 0x4d, 0x3e, 0x9c, 0xb9, 0x71, 0x3e, 0xe0, 0xfd, 0x95, 0x3d,
  0x58, 0xdd, 0xb5, 0x3e, 0xd6, 0xf1, 0xa4, 0xbd, 0xdf, 0xa8, 0x70, 0xbe,
  0x0e, 0xac, 0x03, 0xbe, 0x4d, 0x1b, 0x41, 0x3f, 0xf9, 0x93, 0x05, 0x3e,
  0x58, 0x35, 0xf0, 0x3e, 0x42, 0xd4, 0x85, 0xbe, 0x58, 0xaf, 0x89, 0x3e,
  0x0d, 0x1e, 0x7d, 0x3e, 0xee, 0x4b, 0xf8, 0xbd, 0x24, 0xf6, 0xac, 0xbe,
  0xd0, 0x75, 0x97, 0xbd, 0xfc, 0x15, 0x71, 0xbd, 0x89, 0x74, 0xa9, 0x3f,
  0x76, 0x66, 0x80, 0x3f, 0xd2, 0x0c, 0x58, 0xbe, 0xd0, 0xb9, 0x67, 0x3f,
  0xad, 0x90, 0x29, 0xbe, 0xeb, 0xde, 0x45, 0xbe, 0x0e, 0x82, 0x5d, 0x3f,
  0x5e, 0xaf, 0xc0, 0x3d, 0xe0, 0x05, 0x78, 0x3c, 0x28, 0x49, 0x2c, 0xbc,
  0xd5, 0x42, 0xbd, 0xbe, 0x8c, 0x44, 0x85, 0xbe, 0xea, 0xdd, 0x8a, 0xbe,
  0x89, 0x14, 0x83, 0x3e, 0xb0, 0x85, 0x93, 0x3c, 0x40, 0x1a, 0x6c, 0xbc,
  0xa1, 0xc3, 0x69, 0xbe, 0xd8, 0x82, 0x5e, 0x3e, 0x25, 0x1a, 0x8b, 0x3f,
  0x2d, 0x57, 0x43, 0xbe, 0x5d, 0xde, 0xbe, 0xbc, 0x5e, 0x11, 0xef, 0xbd,
  0xa0, 0x3c, 0x26, 0xbc, 0x01, 0xb2, 0x9c, 0x3d, 0x5c, 0x6a, 0x89, 0x3e,
  0x63, 0x8a, 0x9b, 0xbc, 0x2c, 0x11, 0x01, 0xbe, 0x4c, 0xe6, 0xd0, 0x3d,
  0x0b, 0xc7, 0xb7, 0xbe, 0x60, 0x41, 0xc2, 0xbc, 0xd0, 0x40, 0x2d, 0x3d,
  0x47, 0xb0, 0x70, 0xbe, 0x76, 0xce, 0x3c, 0xbf, 0x01, 0xe0, 0x98, 0xbe,
  0x8e, 0xb5, 0x3d, 0xbe, 0xb0, 0xe5, 0xc0, 0xbc, 0x55, 0x85, 0x9a, 0x3e,
  0x3b, 0x6b, 0x1a, 0x3d, 0x02, 0xca, 0x3b, 0xbe, 0x6b, 0x1f, 0x00, 0xbd,
  0xc8, 0xe5, 0x89, 0xbe, 0x2f, 0xf7, 0x38, 0x3e, 0x5b, 0x17, 0xfc, 0xbb,
  0xcb, 0x68, 0x3b, 0x3c, 0xae, 0x09, 0x79, 0x3e, 0x76, 0x82, 0x94, 0x3e,
  0xd2, 0x81, 0x63, 0xbe, 0xb7, 0xf4, 0x55, 0x3e, 0x54, 0xfa, 0x85, 0xbe,
  0x15, 0x00, 0x34, 0xbe, 0x8a, 0xce, 0x4a, 0xbe, 0x57, 0x92, 0x24, 0xbe,
  0xbb, 0x49, 0x86, 0x3e, 0x16, 0x4d, 0xa5, 0x3e, 0x76, 0x8f, 0x55, 0x3e,
  0x46, 0xaf, 0x8b, 0x3e, 0x02, 0x5e, 0x1d, 0x3d, 0x6c, 0xfe, 0x5c, 0xbd,
  0x50, 0x2d, 0x55, 0xbd, 0xbb, 0x80, 0x0d, 0x3e, 0xa3, 0x7f, 0x39, 0xbd,
  0x3c, 0xc2, 0x87, 0xbe, 0xc5, 0x72, 0x8a, 0xbe, 0xf1, 0xf0, 0x47, 0x3e,
  0x70, 0x0b, 0x9b, 0x3d, 0x14, 0xbd, 0xce, 0x3d, 0xeb, 0xb5, 0xa1, 0xbd,
  0xd8, 0x13, 0x70, 0xbe, 0xc7, 0x0a, 0x1d, 0xbf, 0x04, 0x15, 0x7a, 0x3e,
  0x83, 0xa7, 0xb6, 0xbe, 0x08, 0x3a, 0x42, 0xbd, 0xa8, 0x5d, 0x64, 0xbe,
  0x2f, 0xb5, 0x78, 0x3e, 0x20, 0xa9, 0x92, 0x3d, 0x78, 0xb8, 0xeb, 0x3c,
  0xe3, 0x4c, 0x11, 0x3e, 0x68, 0x1b, 0xbf, 0x3d, 0xcc, 0x7f, 0x03, 0x3f,
  0xa0, 0x92, 0x1e, 0x3d, 0x56, 0x6e, 0x88, 0x3e, 0x74, 0xc8, 0x7e, 0x3e,
  0x90, 0x55, 0x39, 0x3f, 0x1d, 0x8f, 0x1b, 0xbe, 0xd0, 0x30, 0x21, 0x3e,
  0xd0, 0x8b, 0x8a, 0xbd, 0xe3, 0x9a, 0xb8, 0xbe, 0x48, 0x83, 0x06, 0x3d,
  0xa8, 0xd2, 0x60, 0x3e, 0x66, 0x7d, 0x8f, 0x3e, 0x7c, 0xf5, 0xa1, 0xbe,
  0x88, 0x2a, 0x78, 0x3e, 0x99, 0x51, 0xe4, 0xbe, 0xfa, 0x27, 0x5f, 0x3e,
  0x52, 0xb6, 0x82, 0xbe, 0xd7, 0x13, 0xb0, 0xbe, 0xee, 0xaf, 0x94, 0xbe,
  0xfa, 0x7d, 0x08, 0xbc, 0x06, 0x2a, 0x47, 0x3e, 0xbe, 0x31, 0x21, 0xbe,
  0x20, 0x9a, 0xe4, 0xbe, 0x0b, 0x81, 0xf5, 0xbe, 0x86, 0xeb, 0xb2, 0x3e,
  0xd3, 0x51, 0x9d, 0xbe, 0x37, 0x1e, 0x0b, 0xbb, 0xde, 0x3f, 0x0b, 0x3e,
  0xc0, 0xa2, 0x01, 0xbf, 0x39, 0xf0, 0x8a, 0x3e, 0x00, 0x8e, 0x47, 0xba,
  0x16, 0xff, 0xa6, 0x3e, 0x5d, 0xdf, 0xcd, 0x3e, 0xa1, 0x6a, 0x37, 0x3d,
  0xd0, 0x62, 0xcb, 0x3d, 0xdb, 0x4f, 0x13, 0xbe, 0xfc, 0x79, 0x5f, 0xbe,
  0x50, 0xac, 0x5c, 0x3d, 0xa7, 0xc7, 0x8b, 0xbe, 0x36, 0x08, 0x7f, 0xbe,
  0x26, 0x88, 0x01, 0xbf, 0x76, 0xf0, 0x78, 0xbd, 0xdf, 0x14, 0xab, 0x3e,
  0xa0, 0x90, 0x6d, 0x3e, 0xff, 0xd4, 0x86, 0xbe, 0xb4, 0xc5, 0xb9, 0xbd,
  0xc6, 0x93, 0x2f, 0x3e, 0x39, 0xae, 0x3b, 0xbe, 0x32, 0x19, 0x06, 0xbd,
  0x40, 0x7a, 0x84, 0x3c, 0x83, 0x55, 0x51, 0xbe, 0xb2, 0xb1, 0x96, 0xbd,
  0x28, 0x93, 0x3f, 0x3d, 0xce, 0x36, 0x20, 0x3e, 0x7b, 0xe8, 0x41, 0x3d,
  0xae, 0x31, 0x25, 0x3e, 0xaa, 0x25, 0x9a, 0xbd, 0x94, 0xf1, 0x1b, 0xbe,
  0x9c, 0xc0, 0x5f, 0x3c, 0xa6, 0x21, 0xbe, 0xbb, 0xa0, 0x0b, 0x08, 0xbe,
  0x05, 0xc2, 0x84, 0xbe, 0x28, 0xf6, 0x5a, 0xbd, 0xac, 0xc6, 0x68, 0x3d,
  0x3d, 0xf6, 0xc2, 0x3c, 0x0f, 0x7a, 0x91, 0xbe, 0xcc, 0xb4, 0xfc, 0xbc,
  0xa8, 0x30, 0x2d, 0xbd, 0x38, 0x65, 0x94, 0xbe, 0xf1, 0x90, 0x57, 0x3e,
  0x90, 0x8d, 0x38, 0xbe, 0xb0, 0x3e, 0xe9, 0xbc, 0x14, 0xda, 0x47, 0x3c,
  0x1a, 0x55, 0xed, 0x3d, 0x7e, 0xae, 0xd3, 0xbd, 0x90, 0x13, 0x16, 0xbe,
  0xac, 0xe7, 0x6c, 0x3a, 0x4e, 0x85, 0x0a, 0x3e, 0x95, 0x06, 0x8d, 0x3d,
  0xca, 0xdb, 0x2c, 0xbe, 0x90, 0x1f, 0x85, 0xbc, 0xc8, 0xca, 0x38, 0xbe,
  0x7a, 0x70, 0x9b, 0xbe, 0x58, 0x8f, 0x24, 0xbe, 0xf6, 0x6c, 0x3b, 0xbe,
  0x9a, 0xba, 0x33, 0x3e, 0x3c, 0xd4, 0xa7, 0x3d, 0xc6, 0xce, 0x2c, 0x3e,
  0x8f, 0xeb, 0x51, 0xbe, 0x80, 0x26, 0x91, 0xbe, 0xa6, 0x50, 0x5c, 0x3d,
  0xcf, 0x61, 0x37, 0xbe, 0xc9, 0xec, 0x0f, 0x3e, 0x9d, 0xa3, 0x5d, 0xbe,
  0xa3, 0x14, 0x24, 0xbe, 0x9b, 0xd1, 0x96, 0x3e, 0xc0, 0x4d, 0xe9, 0x3d,
  0x80, 0x39, 0x70, 0xbe, 0x08, 0x7e, 0x06, 0x3e, 0x62, 0xe7, 0x36, 0x3e,
  0x2a, 0xed, 0xd0, 0x3d, 0x36, 0x2a, 0x03, 0x3e, 0x04, 0x25, 0x81, 0x3e,
  0xf4, 0x7a, 0xd2, 0x3d, 0x9f, 0xa7, 0x8f, 0x3c, 0xc0, 0x99, 0x1d, 0xbc,
  0xfa, 0x5d, 0x42, 0xbe, 0xa0, 0x1f, 0x81, 0xbd, 0x7e, 0x97, 0xf3, 0x3c,
  0x01, 0xbb, 0x49, 0x3e, 0xfa, 0xef, 0x94, 0x3e, 0x30, 0xa2, 0xea, 0xbc,
  0x3f, 0xce, 0x28, 0xbe, 0xad, 0xb5, 0x91, 0x3e, 0x84, 0x78, 0x38, 0x3c,
  0xe4, 0xcc, 0xd5, 0x3d, 0xe0, 0x2e, 0xf5, 0x3c, 0xe9, 0x18, 0xbf, 0xbd,
  0x3a, 0x24, 0x48, 0x3e, 0x22, 0x9f, 0x66, 0xbe, 0xa4, 0xa8, 0xea, 0x3d,
  0xd9, 0x9b, 0x98, 0xbe, 0xb6, 0xe6, 0x32, 0xbd, 0xa7, 0x31, 0x16, 0xbe,
  0xd1, 0x9d, 0x88, 0xbe, 0xf6, 0x51, 0x9e, 0xbd, 0xd6, 0x85, 0xdf, 0xbd,
  0x64, 0x8e, 0x6e, 0x3e, 0x16, 0x7a, 0x59, 0xbe, 0xfd, 0xc4, 0xdc, 0x3d,
  0x10, 0xb4, 0xc3, 0x3c, 0x94, 0xff, 0x8d, 0xba, 0x65, 0x57, 0x85, 0xbe,
  0x72, 0xeb, 0x31, 0xbe, 0x2c, 0x7e, 0x7d, 0x3e, 0x36, 0x06, 0x9b, 0xbe,
  0xaa, 0x69, 0x23, 0x3e, 0xe8, 0x45, 0x8a, 0xbe, 0x53, 0xd9, 0x39, 0x3e,
  0xb0, 0x88, 0x55, 0x3d, 0x4e, 0x5b, 0x95, 0xbd, 0x2f, 0xf1, 0x91, 0xbe,
  0xa3, 0x0c, 0x4c, 0xbe, 0x5e, 0x8e, 0x80, 0x3e, 0x64, 0xa7, 0x86, 0x3d,
  0x43, 0x5a, 0x92, 0xbe, 0x5f, 0x7b, 0x84, 0xbe, 0xb6, 0x51, 0x81, 0x3e,
  0x12, 0xf7, 0xb0, 0xbe, 0x38, 0x90, 0x58, 0x3e, 0x03, 0x4f, 0x24, 0xbf,
  0xca, 0x6a, 0x8d, 0x3e, 0x44, 0x89, 0xee, 0x3d, 0x64, 0xe2, 0x76, 0x3e,
  0x9a, 0x88, 0x15, 0xbf, 0x62, 0x28, 0x2d, 0xbe, 0xe8, 0x4f, 0x72, 0xbd,
  0x5e, 0xbb, 0x98, 0x3e, 0xe4, 0x1f, 0xd3, 0x3e, 0xdc, 0xf9, 0xb9, 0xbe,
  0x58, 0xbd, 0x91, 0xbe, 0x7c, 0x4f, 0x3d, 0xbe, 0x43, 0x41, 0x4b, 0x3f,
  0xc8, 0xf4, 0x6b, 0x3d, 0xc0, 0x15, 0x06, 0x3f, 0x49, 0x66, 0x9e, 0xbd,
  0x40, 0x76, 0xae, 0xbd, 0xc2, 0x23, 0xc3, 0x3e, 0x2f, 0x5e, 0x38, 0x3d,
  0x27, 0xd4, 0x83, 0xbe, 0x34, 0x73, 0xc9, 0x3d, 0xda, 0x12, 0xa6, 0xbd,
  0x4e, 0x0d, 0x83, 0x3f, 0x27, 0x93, 0x32, 0x3f, 0x48, 0x8f, 0xce, 0x3d,
  0x64, 0x4f, 0x29, 0x3f, 0x85, 0x83, 0x34, 0x3e, 0xf0, 0x87, 0xef, 0xbd,
  0xf3, 0xe0, 0x5f, 0x3f, 0xae, 0x79, 0x3a, 0x3e, 0xb6, 0x8d, 0x2e, 0xbe,
  0x64, 0x81, 0xaa, 0xbd, 0x5f, 0x96, 0x2c, 0xbf, 0x47, 0x7b, 0x8c, 0xbb,
  0x6d, 0x9c, 0x81, 0xbe, 0xc8, 0x47, 0xbb, 0x3e, 0xc0, 0x21, 0x4d, 0x3e,
  0x7e, 0x59, 0x80, 0xbe, 0xd1, 0x0c, 0x01, 0xbf, 0x50, 0xbd, 0xdc, 0xbc,
  0xd2, 0x53, 0x50, 0x3f, 0x5f, 0x1a, 0x8b, 0xbe, 0x5e, 0xc0, 0xfb, 0x3d,
  0x3a, 0xdc, 0x82, 0x3e, 0x90, 0x47, 0x6f, 0x3e, 0xfe, 0x47, 0xed, 0xbd,
  0x94, 0x9b, 0x36, 0x3e, 0x83, 0x15, 0x5c, 0xbe, 0x0c, 0xb3, 0x7b, 0xbe,
  0xe0, 0xf8, 0xa6, 0x3d, 0xfc, 0x31, 0x3c, 0x3e, 0x60, 0x92, 0x2e, 0xbd,
  0x18, 0xec, 0x67, 0xbd, 0x3a, 0x1f, 0xc8, 0xbd, 0x90, 0x9f, 0xbc, 0xbd,
  0x54, 0x11, 0xab, 0xbd, 0xdc, 0x3a, 0x2b, 0xbe, 0x52, 0xae, 0x99, 0x3e,
  0x76, 0x71, 0x95, 0xbe, 0xdd, 0x95, 0x36, 0x3e, 0x18, 0x2d, 0xf9, 0x3d,
  0x97, 0x2b, 0x71, 0x3e, 0xd5, 0x1f, 0x7f, 0xbe, 0x57, 0x4d, 0x86, 0x3d,
  0xda, 0xa1, 0xd9, 0x3d, 0xa4, 0xfb, 0xaa, 0x3d, 0x33, 0x8a, 0x1e, 0xbe,
  0xbd, 0xd0, 0xca, 0xbd, 0xff, 0x76, 0x91, 0x3d, 0x64, 0xfe, 0x19, 0xbe,
  0x8c, 0xe9, 0x8e, 0xbe, 0xf8, 0xec, 0x2e, 0x3d, 0x71, 0xd0, 0x4e, 0x3e,
  0x3d, 0xb6, 0x63, 0xbe, 0x40, 0x3e, 0x73, 0xbe, 0x5f, 0x5c, 0x93, 0x3e,
  0xdd, 0x43, 0xfd, 0xbd, 0xf8, 0xde, 0x93, 0x3e, 0xfa, 0x26, 0x56, 0x3e,
  0xe0, 0x74, 0x92, 0x3e, 0x48, 0x26, 0x6d, 0xbd, 0xed, 0x4e, 0xb5, 0xbd,
  0xd6, 0x63, 0xe9, 0xbd, 0x91, 0x83, 0x0f, 0x3e, 0x41, 0x77, 0x1e, 0xbe,
  0x08, 0x9c, 0x88, 0xb9, 0xb0, 0x20, 0x5f, 0x3d, 0x05, 0x17, 0x01, 0xbe,
  0xd6, 0x9d, 0x8e, 0x3e, 0xf8, 0x74, 0x57, 0x3e, 0x2a, 0x28, 0x8f, 0x3e,
  0x93, 0xa3, 0x90, 0x3e, 0x83, 0x2e, 0x54, 0x3e, 0x70, 0x92, 0x91, 0x3e,
  0x84, 0x54, 0xb1, 0x3d, 0x7c, 0x68, 0x3e, 0x3a, 0x18, 0xc7, 0xd1, 0x3d,
  0x4a, 0xdd, 0x94, 0xbe, 0x68, 0x36, 0x5b, 0x3e, 0x04, 0xb7, 0x00, 0x3e,
  0xd2, 0xfa, 0x00, 0x3e, 0x84, 0x6e, 0x44, 0x3e, 0x1b, 0x99, 0x22, 0xbe,
  0xcb, 0x2e, 0x12, 0xbe, 0x2a, 0xf0, 0x82, 0xbe, 0x70, 0x11, 0xaf, 0x3d,
  0x77, 0xe9, 0x24, 0xbe, 0x90, 0x0f, 0x53, 0x3e, 0xa0, 0xfb, 0x8b, 0x3c,
  0xd1, 0x1d, 0x70, 0xbe, 0x30, 0x7d, 0x49, 0xbd, 0x27, 0x0a, 0x1f, 0xbe,
  0x9a, 0x9f, 0x8b, 0xbe, 0xde, 0xd4, 0x7c, 0xbe, 0xd0, 0xb3, 0x07, 0x3d,
  0x34, 0x5a, 0x9a, 0x3e, 0xb6, 0x8c, 0xc2, 0xbd, 0x76, 0x1c, 0x3c, 0xbe,
  0xc3, 0xf4, 0x4d, 0xbe, 0x00, 0xa6, 0x28, 0xbd, 0x6d, 0x77, 0x1e, 0xbe,
  0x02, 0xd8, 0x8f, 0x3e, 0x42, 0x1d, 0xba, 0xbd, 0x96, 0x23, 0x9b, 0xbd,
  0xe0, 0x77, 0x94, 0x3d, 0x50, 0x70, 0x8e, 0xbd, 0x68, 0x73, 0x90, 0xbd,
  0x98, 0x41, 0x97, 0xbd, 0x1e, 0xd6, 0x22, 0x3e, 0xb6, 0x4d, 0x32, 0x3e,
  0xbe, 0x27, 0x8b, 0xbe, 0x78, 0xc0, 0xc7, 0x3d, 0xdc, 0x65, 0x5a, 0x3e,
  0xb6, 0x85, 0x3e, 0xbe, 0x9e, 0x77, 0xc5, 0xbd, 0xd2, 0xcb, 0xb7, 0xbd,
  0x18, 0xe0, 0x11, 0xbd, 0x68, 0x1a, 0x9b, 0x3e, 0xbd, 0xba, 0x49, 0xbe,
  0xe0, 0x1d, 0x94, 0xbc, 0xb8, 0x68, 0x97, 0x3e, 0xf0, 0x69, 0x85, 0xbd,
  0x80, 0x28, 0x05, 0x3e, 0x12, 0x90, 0x3f, 0x3e, 0xc0, 0xc8, 0xe8, 0xbd,
  0x38, 0xa6, 0x4f, 0x3e, 0x5c, 0x12, 0x85, 0xbe, 0xca, 0x87, 0x0f, 0xbe,
  0x84, 0x66, 0x87, 0x3e, 0xc8, 0xf8, 0xca, 0x3d, 0x9c, 0x63, 0xa6, 0xbd,
  0xf2, 0xc3, 0x86, 0xbe, 0x5a, 0xa8, 0x27, 0x3e, 0x14, 0x4a, 0x3b, 0x3e,
  0xdf, 0xc3, 0xca, 0xbc, 0x18, 0xaa, 0x0f, 0xbd, 0x56, 0x27, 0x28, 0x3e,
  0xb0, 0xfc, 0x2c, 0xbd, 0xca, 0x36, 0xbb, 0xbd, 0x13, 0x74, 0x1c, 0x3e,
  0xe0, 0x06, 0x39, 0xbd, 0xe4, 0x05, 0x11, 0xbd, 0x53, 0x8b, 0x96, 0xbe,
  0xbe, 0xc6, 0x50, 0x3e, 0x93, 0xa5, 0x05, 0x3e, 0xf6, 0xce, 0x44, 0x3e,
  0x47, 0xdf, 0x82, 0x3e, 0x35, 0x3a, 0x3b, 0x3e, 0xa8, 0x41, 0x06, 0x3e,
  0x53, 0x5a, 0x6f, 0xbe, 0x42, 0xfd, 0x8f, 0x3e, 0xc0, 0x29, 0xc3, 0xbd,
  0x1c, 0x06, 0x87, 0x3e, 0x7f, 0xf8, 0x11, 0xbd, 0x42, 0xb9, 0x6d, 0xbe,
  0x12, 0x8e, 0x5f, 0x3e, 0x7c, 0x27, 0x5f, 0xbe, 0xe7, 0x1a, 0x41, 0xbe,
  0x0b, 0xcf, 0xdb, 0x3c, 0xda, 0x29, 0xf2, 0xbd, 0x2c, 0xec, 0x71, 0xbd,
  0xd9, 0xe8, 0xab, 0xbd, 0x29, 0x45, 0xc9, 0xbd, 0x0f, 0xab, 0x13, 0x3d,
  0x58, 0x09, 0x5f, 0x3e, 0x08, 0xa9, 0x8d, 0xbe, 0xa4, 0x78, 0xc0, 0xbd,
  0x08, 0xe1, 0x5f, 0x3d, 0x07, 0x87, 0x0e, 0x3e, 0x40, 0x21, 0x37, 0x3c,
  0x99, 0xed, 0x29, 0xbe, 0xdb, 0xf2, 0x39, 0xbe, 0x52, 0x83, 0x2d, 0x3e,
  0x66, 0x89, 0x54, 0xbe, 0x20, 0x51, 0xda, 0xbd, 0xa1, 0xc0, 0x7c, 0x3e,
  0xb7, 0x4b, 0x98, 0xbe, 0x2a, 0xb3, 0xff, 0xff, 0x04, 0x00, 0x00, 0x00,
  0x00, 0x4b, 0x00, 0x00, 0x0d, 0xfe, 0x43, 0x3e, 0x09, 0x01, 0xf9, 0x3d,
  0xf0, 0xf0, 0x4d, 0xbe, 0x39, 0x43, 0x0b, 0xbe, 0xc9, 0xb3, 0x22, 0x3e,
  0x71, 0x3a, 0xad, 0xbd, 0x00, 0xa5, 0x2a, 0x3e, 0x8a, 0x11, 0xd7, 0xbd,
  0x20, 0xbe, 0x8d, 0xbc, 0x26, 0x10, 0x3a, 0x3e, 0x51, 0x29, 0x9a, 0x3c,
  0x34, 0xe3, 0x7e, 0xbd, 0x5e, 0xef, 0x9d, 0xbd, 0x19, 0x2a, 0xd6, 0x3d,
  0x67, 0x64, 0x53, 0x3d, 0x20, 0x15, 0x46, 0x3e, 0x24, 0x17, 0x13, 0xbe,
  0x60, 0x01, 0x34, 0xbe, 0xf4, 0x36, 0x11, 0xbc, 0xb2, 0xa1, 0x66, 0x3c,
  0x6b, 0x8f, 0xa3, 0x3d, 0x7b, 0x93, 0x95, 0x3d, 0xcd, 0xf5, 0x1b, 0x3e,
  0xd9, 0x43, 0x4e, 0xbe, 0xb0, 0x46, 0xd1, 0xbd, 0x29, 0xe3, 0x73, 0x3d,
  0xe6, 0x63, 0x26, 0xbc, 0x37, 0x8e, 0x6e, 0xbb, 0x50, 0x3b, 0xe1, 0x3d,
  0xae, 0xae, 0xbf, 0x3c, 0x25, 0x40, 0x50, 0xbe, 0x97, 0x8f, 0x57, 0xbd,
  0x2e, 0x74, 0x30, 0xbe, 0x00, 0xa1, 0x24, 0xbe, 0xe4, 0x14, 0x43, 0xbd,
  0xcb, 0xac, 0x21, 0xbe, 0xcc, 0x0d, 0x82, 0x3d, 0x1c, 0x82, 0x4b, 0xbe,
  0x90, 0x74, 0x39, 0xbe, 0x19, 0x54, 0xae, 0x3d, 0x27, 0x05, 0x19, 0xbd,
  0x81, 0x87, 0x14, 0xbe, 0x5a, 0xd8, 0xfc, 0xbd, 0xd1, 0xf8, 0xec, 0xbd,
  0x83, 0xe4, 0x0a, 0xbe, 0x81, 0xa8, 0x29, 0x3e, 0xdf, 0x68, 0xca, 0x3d,
  0xf1, 0x79, 0x06, 0x3e, 0x62, 0x46, 0x23, 0x3e, 0x2c, 0x07, 0xf9, 0xbd,
  0xc9, 0x5b, 0x2c, 0x3e, 0x5f, 0x6c, 0x10, 0x3e, 0x33, 0xa6, 0x12, 0x3e,
  0x91, 0x66, 0x0f, 0x3e, 0xc2, 0x2a, 0xcc, 0x3c, 0x1f, 0x8a, 0x44, 0x3d,
  0x65, 0xf9, 0xe1, 0x3c, 0x25, 0x2d, 0x34, 0x3e, 0x4a, 0xd0, 0xc3, 0x3d,
  0x18, 0x58, 0x3f, 0xbe, 0x41, 0x2e, 0xb0, 0x3d, 0x1c, 0x53, 0x30, 0xbe,
  0x68, 0x92, 0xfa, 0xbd, 0x0e, 0xf7, 0x19, 0xbd, 0x20, 0x7a, 0xd6, 0xbd,
  0xb8, 0xdd, 0x27, 0x3e, 0x57, 0x4d, 0x18, 0xbe, 0x19, 0xa5, 0xa1, 0x3a,
  0x99, 0x82, 0xf7, 0xbd, 0x3b, 0x0a, 0x17, 0x3d, 0x00, 0xfb, 0x27, 0x3e,
  0x95, 0x54, 0x22, 0xbe, 0x2a, 0xe9, 0x30, 0x3e, 0x52, 0x6c, 0x7b, 0x3d,
  0x55, 0xfc, 0x47, 0xbe, 0x61, 0xab, 0xe1, 0xbd, 0xc3, 0x41, 0xe0, 0xbd,
  0xb1, 0x49, 0x3b, 0x3e, 0xb2, 0x07, 0xa3, 0xbc, 0x82, 0x0b, 0xec, 0x3c,
  0x93, 0x9c, 0xe9, 0xbc, 0xfb, 0x87, 0x8f, 0x3d, 0x66, 0xa8, 0xc7, 0x3d,
  0xaa, 0xbf, 0x03, 0xbe, 0xd5, 0x80, 0x0d, 0xbd, 0x0a, 0x04, 0x93, 0xbd,
  0xe7, 0x57, 0xa0, 0x3d, 0xc2, 0x9a, 0x1d, 0x3e, 0x2f, 0xa4, 0x4d, 0xbe,
  0x2f, 0x60, 0x9b, 0xbd, 0x77, 0x3c, 0xad, 0x3d, 0xb0, 0xe4, 0xc3, 0x3d,
  0x61, 0x74, 0x10, 0x3d, 0xee, 0x37, 0x25, 0x3e, 0xe7, 0x4d, 0xb7, 0xbc,
  0x03, 0x3f, 0x0c, 0x3e, 0x67, 0xa2, 0x24, 0xbe, 0x1e, 0x1a, 0x7b, 0x3c,
  0x78, 0xbc, 0x6e, 0x3e, 0x7f, 0x5f, 0x7f, 0xbe, 0xb7, 0x5c, 0x1f, 0x3e,
  0x00, 0xfc, 0x07, 0x3e, 0xd6, 0x56, 0x34, 0xbe, 0x4e, 0x00, 0xf3, 0x3d,
  0x93, 0xa0, 0xeb, 0xbd, 0x63, 0x03, 0xa9, 0x3c, 0x3e, 0x65, 0xae, 0xbd,
  0xe0, 0x10, 0x81, 0xbd, 0x56, 0x2f, 0xd6, 0xbc, 0x16, 0xfb, 0x90, 0x3d,
  0xdd, 0xda, 0x21, 0x3d, 0xbe, 0x35, 0x57, 0xbe, 0x9d, 0xe9, 0x2a, 0x3e,
  0x5b, 0xa5, 0x4b, 0xba, 0x98, 0x7e, 0x85, 0xbe, 0x88, 0x8c, 0x0b, 0xbe,
  0xd4, 0xa5, 0x6b, 0x3d, 0xa4, 0x27, 0x35, 0xbe, 0xf9, 0xf2, 0x95, 0x3c,
  0xc8, 0x82, 0x08, 0xbe, 0x7e, 0x19, 0xcd, 0x3b, 0xc9, 0xed, 0x43, 0xbc,
  0xa3, 0xc6, 0xd6, 0x3d, 0x96, 0xa8, 0x87, 0xbd, 0x8d, 0x14, 0x4b, 0xbe,
  0x56, 0xdf, 0xe8, 0x3d, 0x90, 0x88, 0x80, 0xbd, 0x28, 0x5d, 0x03, 0xbe,
  0x9e, 0x06, 0x2b, 0x3d, 0x74, 0x98, 0x25, 0xbe, 0xf0, 0xec, 0xf8, 0x3d,
  0x0f, 0x82, 0xda, 0x3d, 0x0c, 0xfd, 0x27, 0xbd, 0x6f, 0x98, 0x0c, 0xbb,
  0xfd, 0xd4, 0x9a, 0x3d, 0xd8, 0xbc, 0x62, 0x3c, 0x62, 0x67, 0xcc, 0x3d,
  0x04, 0xf1, 0xf9, 0xbd, 0xd5, 0x21, 0x9b, 0x3e, 0xa1, 0x98, 0xfe, 0xbd,
  0x2f, 0x50, 0x2e, 0xbe, 0xff, 0xc2, 0x17, 0x3e, 0x45, 0x37, 0x09, 0x3e,
  0xdb, 0xa3, 0xf3, 0xbc, 0x1e, 0x2d, 0x98, 0x3e, 0xc3, 0x2c, 0xf2, 0x3d,
  0x14, 0x11, 0x1f, 0x3d, 0x4f, 0xb2, 0x69, 0x3e, 0xe7, 0x1b, 0xd4, 0x3d,
  0x9e, 0xfc, 0x2a, 0xbe, 0x7d, 0x98, 0x14, 0x3e, 0x54, 0xa9, 0xc5, 0xbd,
  0x59, 0x47, 0xe2, 0x3d, 0xdd, 0x20, 0x75, 0x3e, 0xd6, 0x95, 0x9e, 0xbd,
  0x9d, 0x62, 0x3b, 0xbc, 0xcf, 0xe0, 0x9c, 0x3e, 0xd5, 0x49, 0x05, 0x3e,
  0x57, 0xd6, 0xe2, 0x3d, 0x5b, 0x00, 0x4a, 0x3d, 0xee, 0x82, 0x78, 0xbd,
  0xc4, 0xc3, 0x81, 0x3c, 0xe1, 0x9c, 0x3c, 0x3e, 0xbe, 0x92, 0x89, 0x3e,
  0x14, 0x49, 0xe0, 0x3c, 0x75, 0x42, 0x9c, 0x3c, 0xd3, 0x84, 0x82, 0xbc,
  0x20, 0xe4, 0xb2, 0xbd, 0x78, 0x84, 0x94, 0x3d, 0xe9, 0xa3, 0xf3, 0x3d,
  0x5f, 0xed, 0xb4, 0xbd, 0xd5, 0xbd, 0x95, 0x3d, 0x70, 0xe9, 0x01, 0x3c,
  0xd8, 0xcb, 0x2a, 0x3c, 0xaa, 0x1e, 0x20, 0xbd, 0x14, 0x8b, 0x11, 0xbe,
  0xd0, 0x44, 0x18, 0xbc, 0x8e, 0xbe, 0xd9, 0xbc, 0x8c, 0x58, 0x83, 0x3e,
  0xa3, 0xcf, 0x1e, 0x3e, 0xbe, 0x81, 0x8b, 0x3e, 0xa9, 0x7d, 0x58, 0x3e,
  0x0c, 0x80, 0x45, 0x3e, 0xad, 0xbd, 0x05, 0x3e, 0x23, 0xe8, 0x28, 0x3e,
  0x8c, 0xc2, 0x2e, 0xbe, 0x9f, 0xda, 0x40, 0xbd, 0x6a, 0x53, 0x38, 0xbe,
  0x06, 0x27, 0xac, 0xbd, 0x75, 0xf3, 0xbf, 0x3c, 0xda, 0xd1, 0xf9, 0xbd,
  0xa7, 0x8b, 0x54, 0x3d, 0xb0, 0xbf, 0x01, 0x3c, 0x90, 0x3d, 0x2a, 0xbe,
  0xfc, 0xb3, 0x1d, 0xbd, 0xec, 0x18, 0x73, 0xbd, 0x6c, 0xb9, 0x43, 0x3e,
  0x26, 0x83, 0x12, 0xbe, 0x94, 0xdb, 0xe5, 0x3d, 0x60, 0x29, 0xab, 0x3d,
  0x08, 0x7a, 0x10, 0xbd, 0x40, 0x30, 0x6f, 0x3b, 0x20, 0x43, 0xbd, 0x3b,
  0x6e, 0xd2, 0x49, 0x3e, 0x4c, 0xa0, 0xa6, 0x3d, 0xd6, 0x7e, 0x2a, 0x3e,
  0x20, 0x66, 0x1a, 0x3e, 0x28, 0x1c, 0x7f, 0xbd, 0xf8, 0xa0, 0xdf, 0x3d,
  0x40, 0xa6, 0xe3, 0x3b, 0x7e, 0xe1, 0xc7, 0xbd, 0x28, 0x05, 0x81, 0x3c,
  0x50, 0xd5, 0x40, 0xbe, 0x34, 0x94, 0x1a, 0x3e, 0xa0, 0x98, 0x4b, 0x3c,
  0x36, 0x20, 0x10, 0xbe, 0xa6, 0xb8, 0x19, 0x3e, 0x66, 0x01, 0x06, 0x3e,
  0x5e, 0x14, 0x0f, 0xbe, 0xe8, 0xe6, 0xfd, 0xbc, 0xac, 0x21, 0xfc, 0xbd,
  0xd0, 0x50, 0x1d, 0xbe, 0xb0, 0x15, 0x8a, 0xbd, 0x0d, 0x3a, 0xc1, 0xbd,
  0x48, 0x1d, 0x9d, 0xbd, 0x1a, 0x14, 0x0b, 0xbe, 0xe8, 0x27, 0xc9, 0x3d,
  0x44, 0x9c, 0x28, 0x3d, 0x06, 0xaf, 0xc1, 0xbd, 0x54, 0x8d, 0xa3, 0x3d,
  0xd4, 0xae, 0xcf, 0xbd, 0xc8, 0xb1, 0xe4, 0xbc, 0x7c, 0x83, 0x2e, 0xbe,
  0xc4, 0x7d, 0xb2, 0xbd, 0xc8, 0xd4, 0xf6, 0x3d, 0x8e, 0x44, 0xd8, 0xbd,
  0x18, 0x51, 0x3c, 0xbe, 0xc9, 0x97, 0xc1, 0xbd, 0x0c, 0xa4, 0x44, 0x3e,
  0xe0, 0xd5, 0xf6, 0xbd, 0xe0, 0x0e, 0x9b, 0x3b, 0xd0, 0x34, 0x11, 0xbe,
  0x08, 0x59, 0xab, 0xbc, 0xf8, 0x8e, 0xd8, 0xbc, 0x13, 0x33, 0x32, 0xbe,
  0x90, 0x80, 0xdd, 0x3c, 0x8c, 0x4e, 0xcb, 0x3d, 0xa0, 0x9f, 0x6f, 0x3c,
  0xe8, 0x25, 0x4d, 0x3e, 0xc0, 0xd0, 0x05, 0xbb, 0x98, 0x9c, 0x8e, 0xbd,
  0x40, 0xf8, 0x59, 0x3c, 0xc0, 0x11, 0xff, 0xbb, 0x00, 0x71, 0x11, 0xba,
  0xc0, 0x8a, 0x16, 0xbc, 0x5e, 0x12, 0x44, 0x3e, 0x98, 0x0b, 0xb3, 0x3d,
  0x9a, 0x27, 0x2d, 0xbe, 0xc2, 0x43, 0xab, 0xbd, 0x26, 0x4a, 0x8d, 0xbd,
  0x14, 0xc1, 0x26, 0x3d, 0x0d, 0xcc, 0x41, 0xbe, 0xc4, 0x5d, 0xc4, 0x3d,
  0x8e, 0xcf, 0x2f, 0x3e, 0x10, 0xc1, 0x71, 0x3d, 0x27, 0xbe, 0x13, 0xbe,
  0x7c, 0x76, 0xb3, 0x3d, 0x88, 0xe0, 0xad, 0x3d, 0x80, 0x98, 0x9c, 0xbd,
  0xa0, 0x72, 0x98, 0x3d, 0x48, 0xe4, 0xf7, 0x3d, 0xe0, 0xec, 0x17, 0xbc,
  0x00, 0x3e, 0xdb, 0x39, 0x3a, 0x02, 0x16, 0xbe, 0x50, 0x13, 0x3d, 0xbe,
  0x72, 0x0f, 0x4d, 0x3e, 0xb4, 0x70, 0x7b, 0xbd, 0x96, 0xc7, 0x22, 0x3e,
  0x60, 0x14, 0xc3, 0x3d, 0x19, 0x2b, 0x02, 0xbe, 0x6c, 0xba, 0xd6, 0x3d,
  0x1e, 0x9e, 0x41, 0x3e, 0x70, 0x8f, 0x38, 0x3e, 0x74, 0xd8, 0x37, 0xbe,
  0x78, 0x5d, 0xec, 0x3d, 0x8b, 0x64, 0x45, 0xbe, 0xd8, 0xd5, 0xa4, 0x3c,
  0xc7, 0x50, 0xe6, 0xbd, 0x78, 0xf9, 0x95, 0xbe, 0x2f, 0xbf, 0x5e, 0xbd,
  0x2f, 0xe8, 0xc8, 0x3d, 0xca, 0xf0, 0x4b, 0xbd, 0x28, 0xc6, 0x13, 0x3c,
  0x33, 0x6d, 0x2f, 0x3d, 0xcf, 0x86, 0x6d, 0xbe, 0x6b, 0x7f, 0xe5, 0x3d,
  0x67, 0xe6, 0xf9, 0x3c, 0xe1, 0xe4, 0x51, 0xbe, 0xd1, 0x4f, 0x45, 0x3e,
  0x5c, 0xf3, 0x93, 0x3c, 0x69, 0x07, 0x97, 0xbc, 0xb7, 0x7b, 0xc1, 0xbd,
  0x8f, 0xd9, 0x03, 0x3e, 0x7c, 0x6e, 0xf7, 0xbd, 0x7b, 0x43, 0x53, 0x3e,
  0x7a, 0x1e, 0x13, 0x3e, 0x31, 0xee, 0x52, 0xbd, 0x36, 0xe7, 0xf5, 0xbd,
  0xe6, 0xa3, 0x82, 0x3d, 0x5a, 0x6b, 0x9a, 0xbe, 0x64, 0xc5, 0x08, 0xbe,
  0xae, 0x14, 0x1c, 0xbd, 0x5d, 0x8d, 0xb6, 0xbe, 0xae, 0x08, 0x68, 0xbe,
  0x9d, 0x17, 0xa6, 0xbd, 0xfb, 0x5f, 0xa2, 0xbe, 0x07, 0x9c, 0x85, 0xbe,
  0x16, 0xc7, 0x5f, 0xbe, 0xcd, 0xf0, 0x78, 0x3d, 0x42, 0xd4, 0x60, 0x3d,
  0x36, 0x7a, 0x80, 0x3d, 0xf0, 0x7e, 0x7c, 0xbe, 0x46, 0xcb, 0xe4, 0x3d,
  0x14, 0x97, 0xd6, 0xbb, 0xc1, 0x8b, 0x56, 0xbc, 0x08, 0x64, 0x45, 0xbe,
  0x17, 0xec, 0x5f, 0xbe, 0x97, 0x5f, 0x3e, 0x3c, 0xcd, 0x93, 0x07, 0x3e,
  0x60, 0x55, 0xb3, 0x3c, 0xed, 0x6a, 0xb6, 0xbd, 0x5a, 0xf1, 0xba, 0x3d,
  0x39, 0xff, 0xe7, 0x3d, 0x00, 0x81, 0xd1, 0x3d, 0xa0, 0x6d, 0xe8, 0xbd,
  0xf9, 0x8f, 0x26, 0xbe, 0x41, 0xe7, 0xc7, 0x3d, 0x34, 0x55, 0x19, 0xbe,
  0x23, 0x7b, 0x45, 0xbe, 0x21, 0xf6, 0x19, 0x3e, 0x90, 0x2c, 0x4c, 0x3d,
  0x86, 0x0b, 0x86, 0xbd, 0xa0, 0x62, 0xc5, 0x3e, 0x03, 0x09, 0xce, 0xbc,
  0x19, 0x74, 0xf0, 0x3d, 0xc0, 0xe2, 0x8d, 0x3e, 0x7f, 0x82, 0xad, 0x3d,
  0xbb, 0x2e, 0xfd, 0xbd, 0x47, 0xf1, 0x9e, 0x3e, 0xe7, 0x0f, 0xef, 0xbc,
  0xc8, 0xab, 0x0a, 0xbe, 0xb2, 0x2e, 0x60, 0x3e, 0x3e, 0xb8, 0x96, 0x39,
  0x8e, 0xb5, 0x6d, 0xbe, 0xbd, 0x63, 0xa4, 0x3e, 0x57, 0x07, 0x89, 0x3e,
  0xe8, 0xbf, 0x6b, 0xbe, 0xa9, 0x3c, 0x83, 0x3e, 0xad, 0xbd, 0xae, 0x3d,
  0xa4, 0xf8, 0xd4, 0x3d, 0x31, 0x40, 0x82, 0x3e, 0x76, 0xe5, 0x4a, 0x3e,
  0xf2, 0x8e, 0xcd, 0x3d, 0xef, 0xcf, 0x76, 0xbd, 0x64, 0xcf, 0x49, 0x3e,
  0xfe, 0x64, 0x95, 0x3d, 0x88, 0xb9, 0x92, 0x3e, 0xb3, 0xa7, 0xa4, 0xbd,
  0x15, 0x76, 0x09, 0x3b, 0xbe, 0x97, 0x87, 0x3e, 0xec, 0x38, 0x71, 0x3d,
  0xab, 0xec, 0xfb, 0xbd, 0xef, 0x4b, 0x23, 0xbc, 0x93, 0x07, 0xbc, 0xbd,
  0x25, 0xe8, 0x97, 0xbd, 0x4e, 0x81, 0x82, 0x3e, 0x79, 0x08, 0xc2, 0x3d,
  0xda, 0xfb, 0x02, 0xbc, 0x57, 0x24, 0xda, 0x3d, 0x18, 0x11, 0x3f, 0x3d,
  0x0c, 0xb8, 0x4e, 0xbe, 0x79, 0x1c, 0xe0, 0x3d, 0x76, 0x54, 0x16, 0x3e,
  0x21, 0x8d, 0xbb, 0xbd, 0xe0, 0xb1, 0xdf, 0x3d, 0x62, 0x8e, 0x21, 0x3e,
  0x1e, 0x3e, 0x02, 0xbe, 0x3b, 0x5a, 0x24, 0xbe, 0x90, 0x7b, 0x06, 0xbe,
  0x62, 0x62, 0x07, 0xbe, 0x3e, 0xda, 0x27, 0xbe, 0x5c, 0x29, 0xef, 0x3d,
  0x58, 0xa5, 0xd9, 0x3d, 0x94, 0x1e, 0xb1, 0x3d, 0xee, 0x4c, 0x37, 0xbe,
  0xc0, 0xd6, 0x1b, 0x3c, 0x6c, 0xd1, 0x54, 0xbd, 0x84, 0x58, 0x27, 0xbd,
  0x3b, 0xa3, 0x28, 0xbe, 0x28, 0xf3, 0x49, 0x3e, 0x40, 0x2b, 0x87, 0xbb,
  0xb0, 0x79, 0xcc, 0x3d, 0x03, 0xba, 0x06, 0xbe, 0x4c, 0x84, 0x0a, 0xbd,
  0x51, 0x8f, 0xc7, 0xbd, 0x32, 0x36, 0xf3, 0xbd, 0x60, 0x31, 0x1d, 0x3e,
  0x54, 0x55, 0x0c, 0x3e, 0x9c, 0x16, 0x21, 0x3d, 0x48, 0xe2, 0x01, 0xbd,
  0xb0, 0x9f, 0x0f, 0x3e, 0x10, 0x15, 0x27, 0xbd, 0x08, 0xc1, 0x99, 0xbd,
  0x9e, 0x1a, 0x01, 0x3e, 0x9a, 0x1c, 0x48, 0xbe, 0xf6, 0x38, 0x95, 0xbd,
  0xc4, 0xb0, 0x17, 0xbd, 0xc4, 0xfb, 0xc4, 0x3d, 0x80, 0x19, 0xe6, 0xbc,
  0x98, 0xdb, 0x37, 0x3e, 0x96, 0xd4, 0x18, 0x3e, 0x80, 0xcc, 0xc2, 0xbc,
  0xd0, 0xbc, 0xb0, 0xbd, 0x54, 0x80, 0x0f, 0x3d, 0x46, 0x7d, 0x90, 0xbd,
  0xa0, 0xad, 0xce, 0xbc, 0x40, 0x05, 0x62, 0xbd, 0x50, 0xde, 0x32, 0xbe,
  0xfa, 0x47, 0x1e, 0x3e, 0x12, 0xe8, 0x3e, 0x3e, 0x59, 0x87, 0x45, 0xbe,
  0xd0, 0xc4, 0x6a, 0x3d, 0x9e, 0xdb, 0x3a, 0x3e, 0x48, 0x4a, 0x8b, 0xbd,
  0x54, 0xff, 0x8a, 0x3d, 0x80, 0x6d, 0x68, 0x3d, 0x47, 0xce, 0x15, 0xbe,
  0xfc, 0xd0, 0x05, 0xbe, 0x4d, 0xd5, 0x34, 0xbe, 0x51, 0x09, 0xbc, 0xbd,
  0x15, 0x2e, 0xdf, 0xbd, 0x66, 0xa6, 0x10, 0x3e, 0xb0, 0x52, 0x19, 0xbc,
  0xac, 0x23, 0x22, 0x3d, 0x24, 0x6d, 0x62, 0xbd, 0xd8, 0x2a, 0x0b, 0xbe,
  0xc8, 0xc0, 0xdc, 0xbc, 0x58, 0x83, 0x36, 0xbd, 0xde, 0x07, 0xd8, 0xbd,
  0x9c, 0x8a, 0x1c, 0x3e, 0x8c, 0xb2, 0x27, 0xbe, 0x80, 0x7b, 0x16, 0xbb,
  0xcc, 0xd6, 0x27, 0xbe, 0xa3, 0x41, 0xe7, 0xbd, 0x90, 0xfb, 0x38, 0x3e,
  0xc8, 0x80, 0x98, 0x3d, 0xd8, 0x9e, 0x15, 0x3e, 0x80, 0x82, 0x1a, 0xbd,
  0x89, 0xd8, 0x25, 0xbe, 0xaa, 0x08, 0xb6, 0xbd, 0x7c, 0x35, 0xba, 0x3d,
  0x36, 0xfb, 0x07, 0xbe, 0xe0, 0x4b, 0x0c, 0xbe, 0x14, 0x16, 0x39, 0x3e,
  0xe0, 0x86, 0xff, 0xbc, 0xa8, 0xd7, 0x34, 0xbe, 0x52, 0x1d, 0x04, 0x3e,
  0x97, 0x59, 0x35, 0xbe, 0x28, 0x58, 0x96, 0x3c, 0x6e, 0x27, 0x13, 0x3e,
  0x8c, 0x05, 0x41, 0xbd, 0xe2, 0xd8, 0x21, 0xbe, 0x4c, 0xdd, 0xed, 0x3d,
  0xad, 0x74, 0x43, 0xbe, 0x28, 0xb0, 0xe1, 0xbc, 0x28, 0xec, 0x5a, 0xbd,
  0xe8, 0x45, 0x48, 0x3d, 0xe0, 0x80, 0x3f, 0x3d, 0x20, 0x7f, 0xc0, 0x3b,
  0xa0, 0xe3, 0x4b, 0xbc, 0x16, 0xab, 0x94, 0xbd, 0x3a, 0xae, 0x4b, 0x3e,
  0xfa, 0x8d, 0x81, 0xbd, 0x80, 0x02, 0x64, 0xbc, 0x88, 0x44, 0x35, 0x3e,
  0x68, 0x43, 0x09, 0x3e, 0x38, 0x9e, 0x30, 0x3e, 0xd9, 0x8e, 0x45, 0xbe,
  0x8c, 0x73, 0x10, 0x3d, 0x40, 0x42, 0xaa, 0xbd, 0xea, 0xfe, 0x01, 0x3e,
  0x3b, 0x0d, 0x05, 0xbe, 0x1e, 0x4c, 0x43, 0xbe, 0xa0, 0x77, 0x97, 0x3d,
  0x18, 0xf3, 0x16, 0x3e, 0x1e, 0x12, 0x2c, 0x3e, 0x00, 0x55, 0x51, 0xbb,
  0xa6, 0x70, 0x35, 0xbe, 0xc4, 0xb8, 0xb3, 0x3d, 0x20, 0x0c, 0xb4, 0xbc,
  0xc6, 0xce, 0x9e, 0xbd, 0xc0, 0x3f, 0x68, 0x3d, 0x34, 0x8e, 0xcc, 0x3d,
  0x82, 0x27, 0x34, 0xbe, 0x8e, 0x90, 0x41, 0x3e, 0xa4, 0x7d, 0xb9, 0x3d,
  0x0a, 0x44, 0x25, 0x3e, 0x90, 0xe0, 0x35, 0x3e, 0x78, 0xdf, 0x6d, 0xbd,
  0x14, 0xb9, 0x4a, 0xbd, 0x58, 0xe2, 0x1a, 0xbd, 0xed, 0xe5, 0xbe, 0xbd,
  0x5c, 0x85, 0xa2, 0xbd, 0x48, 0x10, 0x40, 0x3e, 0x0d, 0xef, 0xea, 0xbd,
  0x10, 0x92, 0x1d, 0xbe, 0x70, 0x6e, 0x03, 0x3e, 0xc8, 0xe6, 0x06, 0xbd,
  0x64, 0x9b, 0x25, 0x3e, 0x60, 0x2f, 0x1d, 0xbc, 0xc2, 0x17, 0x3b, 0x3e,
  0x74, 0x4a, 0x48, 0xbe, 0x24, 0x1f, 0x06, 0xbd, 0x82, 0xbd, 0x14, 0x3e,
  0x79, 0x6e, 0xe1, 0xbd, 0x32, 0x87, 0x49, 0x3e, 0xd0, 0xe0, 0xba, 0xbd,
  0xa8, 0xe3, 0xc1, 0xbd, 0xe5, 0x0e, 0xb8, 0xbd, 0x60, 0x9b, 0x09, 0xbd,
  0x95, 0x96, 0xcb, 0xbd, 0x13, 0xa2, 0x14, 0xbe, 0xc0, 0x4e, 0x1b, 0xbe,
  0xd7, 0x3c, 0x09, 0xbe, 0x94, 0xc1, 0xb5, 0x3d, 0xa0, 0x71, 0xa8, 0x3c,
  0x06, 0xa6, 0x2c, 0xbe, 0x78, 0x12, 0x53, 0xbd, 0x3c, 0x46, 0x30, 0x3e,
  0xe0, 0xbb, 0x06, 0x3e, 0xbb, 0x0d, 0x16, 0xbe, 0x74, 0xc3, 0x1c, 0x3d,
  0x62, 0x91, 0x39, 0x3e, 0x84, 0xfc, 0x28, 0xbe, 0xe0, 0xe3, 0xb6, 0x3c,
  0x22, 0xb1, 0x96, 0xbd, 0x30, 0xcf, 0x4c, 0xbc, 0x46, 0x03, 0x01, 0xbe,
  0x50, 0x75, 0x88, 0xbc, 0x1c, 0xb5, 0xb4, 0x3d, 0x40, 0x6e, 0x0a, 0x3e,
  0x60, 0x52, 0x37, 0xbc, 0xe8, 0x61, 0xd6, 0xbc, 0x29, 0xc7, 0xcb, 0xbd,
  0xd0, 0x11, 0xbd, 0x3d, 0x78, 0x85, 0x33, 0xbe, 0xf8, 0x5f, 0x44, 0xbd,
  0x42, 0xa2, 0x26, 0xbe, 0x3c, 0x68, 0x33, 0x3e, 0xd0, 0x50, 0x39, 0xbc,
  0x81, 0x74, 0x3d, 0xbe, 0x40, 0xa2, 0x7e, 0xbb, 0x78, 0x32, 0xb2, 0xbc,
  0x34, 0x7f, 0x0d, 0xbe, 0xe0, 0xb2, 0x96, 0xbc, 0xf0, 0x8c, 0x83, 0x3d,
  0xca, 0xd9, 0xb1, 0xbd, 0x1a, 0xb3, 0x2b, 0xbe, 0xde, 0x4a, 0x3d, 0x3e,
  0x10, 0x13, 0x64, 0x3d, 0xa8, 0x0a, 0x75, 0x3d, 0x42, 0x00, 0x3b, 0xbe,
  0x10, 0x66, 0x54, 0xbc, 0xa4, 0x67, 0x11, 0x3e, 0x60, 0x4e, 0x39, 0x3c,
  0x0c, 0x20, 0xcc, 0x3d, 0xf4, 0x64, 0x36, 0xbe, 0x24, 0x2e, 0x0d, 0x3e,
  0xe8, 0xc9, 0xf8, 0x3d, 0xe6, 0xaa, 0x03, 0xbe, 0xa0, 0x53, 0x49, 0xbe,
  0x18, 0x86, 0x17, 0x3e, 0x42, 0x92, 0x22, 0x3e, 0x60, 0xaf, 0x36, 0xbc,
  0xc0, 0x8d, 0x16, 0x3c, 0x4c, 0xe3, 0x2f, 0x3e, 0xd2, 0xd3, 0x08, 0xbe,
  0x70, 0xc1, 0xb3, 0x3d, 0x00, 0xda, 0x50, 0x3d, 0xb0, 0x3f, 0x52, 0x3d,
  0xf7, 0xfe, 0x26, 0xbe, 0x30, 0x19, 0x81, 0x3d, 0x6e, 0xdd, 0x23, 0x3e,
  0xeb, 0x53, 0x3c, 0xbe, 0x91, 0x32, 0xf7, 0xbd, 0x93, 0xe3, 0xe8, 0xbd,
  0xa8, 0xcf, 0xbd, 0x3c, 0xe0, 0x48, 0xc0, 0xbc, 0x34, 0xae, 0x25, 0xbe,
  0x44, 0x8c, 0x42, 0x3e, 0x53, 0x61, 0x18, 0xbe, 0xd8, 0xde, 0xa0, 0x3d,
  0xfc, 0x54, 0xd4, 0x3d, 0xc6, 0x47, 0x0b, 0x3e, 0xf0, 0xb7, 0xe6, 0x3d,
  0xde, 0x67, 0x2d, 0xbe, 0x10, 0x0d, 0x33, 0x3c, 0x24, 0xae, 0x30, 0xbd,
  0x88, 0x74, 0x1b, 0x3e, 0x84, 0x0b, 0xb5, 0x3d, 0x68, 0x6f, 0xaa, 0xbd,
  0x0c, 0xfd, 0x08, 0x3d, 0x2e, 0xa8, 0x0c, 0x3e, 0xe0, 0x81, 0x8d, 0xbd,
  0xda, 0x1b, 0x8f, 0xbd, 0xa8, 0x0d, 0x4b, 0x3e, 0xe0, 0x68, 0x05, 0xbc,
  0xfa, 0x2e, 0x01, 0xbe, 0x30, 0x6f, 0xaf, 0x3d, 0x1c, 0x1d, 0x78, 0xbd,
  0x94, 0x9d, 0x28, 0x3e, 0x1a, 0xcf, 0x22, 0xbe, 0x20, 0xc5, 0x14, 0xbd,
  0xe0, 0x86, 0x1d, 0x3e, 0x85, 0xe9, 0xda, 0xbd, 0xa6, 0x97, 0x94, 0xbd,
  0xee, 0x1e, 0x07, 0xbe, 0x72, 0xa2, 0x05, 0xbe, 0x10, 0xea, 0x23, 0x3e,
  0x16, 0x40, 0x27, 0xbe, 0xc6, 0x76, 0x82, 0xbd, 0xbc, 0x12, 0xa3, 0x3d,
  0xb4, 0xb4, 0x33, 0xbe, 0xc2, 0x49, 0x9b, 0xbd, 0x60, 0xf4, 0x9d, 0xbb,
  0x6e, 0x6e, 0x97, 0xbd, 0xc4, 0xb1, 0xb9, 0x3d, 0xd0, 0x65, 0x8a, 0x3d,
  0x60, 0xf3, 0x18, 0xbc, 0x90, 0x3d, 0x28, 0x3e, 0x90, 0x05, 0xb7, 0x3d,
  0xd4, 0xa3, 0x02, 0x3e, 0x67, 0x23, 0xb2, 0xbd, 0x38, 0x8c, 0xda, 0x3c,
  0xe6, 0x3c, 0x26, 0x3e, 0x6c, 0xef, 0x0d, 0x3e, 0x6d, 0x36, 0xfc, 0xbd,
  0x28, 0x87, 0x17, 0x3e, 0x4b, 0x57, 0x2c, 0xbe, 0x9c, 0x88, 0x3d, 0xbd,
  0x9e, 0xf2, 0x21, 0x3e, 0xfd, 0x92, 0x33, 0xbe, 0x4b, 0xed, 0xe7, 0xbd,
  0x81, 0x90, 0x3d, 0xbe, 0xfa, 0xdd, 0x8c, 0xbd, 0xfc, 0x0c, 0x37, 0x3d,
  0x88, 0xf3, 0x6b, 0x3d, 0x9c, 0xa1, 0x29, 0x3e, 0xec, 0x0b, 0x4a, 0xbe,
  0xda, 0x5c, 0x44, 0x3e, 0xc0, 0xb6, 0xf5, 0x3d, 0xa8, 0x96, 0xac, 0xbd,
  0xdc, 0x55, 0x16, 0x3e, 0x90, 0x1c, 0x82, 0xbd, 0x38, 0x96, 0x82, 0xbd,
  0x40, 0xb4, 0xed, 0xbc, 0x60, 0xed, 0x2a, 0xbc, 0xc0, 0xbd, 0xbb, 0x3d,
  0x62, 0xd0, 0xe3, 0xbd, 0x1a, 0xf5, 0x29, 0xbe, 0x3b, 0x6c, 0x47, 0xbe,
  0xf4, 0x11, 0x33, 0x3e, 0xa4, 0x07, 0x97, 0x3c, 0x3f, 0x0a, 0x43, 0xbd,
  0x6d, 0x4f, 0x85, 0x3d, 0xa9, 0xe0, 0xf2, 0xbd, 0x77, 0x51, 0x8c, 0xbd,
  0x8d, 0xba, 0x43, 0x3e, 0xb8, 0xec, 0xa5, 0xbe, 0xa2, 0xa2, 0x9f, 0x3d,
  0x49, 0xcd, 0xc0, 0x3c, 0xfe, 0x3c, 0x91, 0xbe, 0x02, 0x68, 0x96, 0x3d,
  0x32, 0x0f, 0xdb, 0xbc, 0x2e, 0x51, 0x9d, 0xbe, 0xed, 0x5e, 0xa7, 0xbd,
  0x6d, 0xa2, 0xad, 0x3d, 0x57, 0x13, 0x57, 0xbd, 0x73, 0x76, 0x0a, 0x3e,
  0xcd, 0x19, 0xea, 0x3d, 0x1c, 0xca, 0xa2, 0xbd, 0x2f, 0x93, 0x00, 0xbd,
  0x2c, 0xa6, 0xa7, 0x3d, 0x4c, 0x6a, 0xd9, 0xbe, 0x09, 0xf5, 0x95, 0xbd,
  0x32, 0x55, 0x75, 0x3e, 0x6b, 0xed, 0x6d, 0xbe, 0x2c, 0x79, 0x64, 0xbd,
  0x51, 0x76, 0x82, 0x3d, 0x54, 0x62, 0xc3, 0xbe, 0x24, 0x98, 0x79, 0xbe,
  0xd1, 0x33, 0x3e, 0x3e, 0x91, 0xcc, 0xb2, 0xbe, 0xb9, 0xea, 0x47, 0x3d,
  0xa2, 0x64, 0x4b, 0x3d, 0x29, 0x39, 0x73, 0xbe, 0x35, 0x64, 0xbe, 0xbc,
  0xfc, 0x62, 0x24, 0x3e, 0x39, 0xdb, 0x5b, 0xbe, 0x00, 0x53, 0x6d, 0xbc,
  0xbf, 0x1b, 0xee, 0xbd, 0xf4, 0xf5, 0x89, 0xbc, 0xdb, 0xe0, 0x10, 0x3e,
  0x7b, 0x5d, 0x09, 0xbd, 0x55, 0x7d, 0xc0, 0xbd, 0xd0, 0xac, 0xdd, 0x3d,
  0x6b, 0x68, 0x43, 0xbd, 0x96, 0xc3, 0x00, 0xbe, 0x31, 0xf7, 0xc8, 0x3d,
  0x04, 0x77, 0x00, 0xbe, 0xef, 0xab, 0x7a, 0x3e, 0xc3, 0x26, 0x4b, 0x3e,
  0x00, 0xe8, 0x3a, 0xbe, 0x3f, 0xc0, 0x9a, 0x3c, 0x49, 0xb1, 0xbf, 0x3d,
  0xfe, 0x7b, 0x0e, 0xbc, 0x9a, 0xd4, 0x49, 0x3d, 0x64, 0x0a, 0x76, 0x3e,
  0x3b, 0x9c, 0x5f, 0x3d, 0xe0, 0x1f, 0x31, 0x3e, 0x9b, 0x39, 0xab, 0xbd,
  0x75, 0x8a, 0x4d, 0xbe, 0x28, 0x2b, 0x42, 0xbd, 0xab, 0xca, 0x35, 0x3e,
  0x18, 0xe8, 0xf8, 0x3c, 0xb0, 0x47, 0x5f, 0x3e, 0x84, 0x45, 0xf5, 0x3d,
  0x2c, 0xc2, 0x40, 0xbe, 0x5c, 0x26, 0xdf, 0x3d, 0xe3, 0x88, 0x6d, 0x3d,
  0x43, 0x6c, 0x9b, 0xba, 0x4c, 0xbd, 0x7c, 0xbd, 0x98, 0xd7, 0xa9, 0xbd,
  0x5e, 0x2b, 0x2a, 0xbe, 0x27, 0xda, 0x8b, 0x3e, 0x30, 0xf5, 0xb8, 0xbc,
  0xe9, 0xf2, 0x0c, 0xbe, 0x93, 0x02, 0x86, 0x3e, 0x82, 0x77, 0x6a, 0xbd,
  0xfe, 0xfb, 0x4f, 0xbe, 0xea, 0xc6, 0xc9, 0x3d, 0x5b, 0x5d, 0x62, 0x3d,
  0x43, 0xc9, 0x8b, 0x3b, 0xbe, 0x49, 0x88, 0x3e, 0xcc, 0x97, 0xb7, 0x3d,
  0xed, 0x04, 0xdb, 0x3d, 0xa4, 0x65, 0x88, 0x3e, 0x64, 0x42, 0xc9, 0x3d,
  0x66, 0x2a, 0xde, 0xbd, 0x6c, 0xae, 0x0b, 0x3e, 0x15, 0x99, 0xcf, 0xbb,
  0x3a, 0xae, 0x0f, 0x3e, 0x51, 0x41, 0x6e, 0x3e, 0x65, 0xb1, 0x0f, 0x3e,
  0x59, 0x59, 0x75, 0x3d, 0xf2, 0x18, 0xc1, 0xbd, 0x4c, 0xcc, 0xdb, 0x3d,
  0x55, 0x26, 0xcf, 0x3d, 0x3f, 0x38, 0xed, 0xbd, 0x8f, 0xb0, 0x40, 0x3d,
  0xbc, 0xd2, 0x8e, 0xbd, 0xd5, 0x07, 0x99, 0xbc, 0x9f, 0x27, 0x04, 0xbe,
  0xe1, 0xe5, 0xaa, 0xbd, 0x76, 0xbd, 0x19, 0x3c, 0x8d, 0xac, 0x1a, 0x3d,
  0x5b, 0xad, 0x42, 0x3e, 0xae, 0x76, 0x03, 0x3d, 0x36, 0xe3, 0x44, 0xbe,
  0xbd, 0xa7, 0xe6, 0xbd, 0x12, 0xa0, 0x20, 0x3e, 0x20, 0xf4, 0x23, 0x3e,
  0x0e, 0x89, 0x45, 0x3e, 0xc8, 0xbc, 0x11, 0x3e, 0xcd, 0x9b, 0x4d, 0xbe,
  0xb6, 0xd6, 0x49, 0xbd, 0xc7, 0xc7, 0x86, 0xbd, 0xb0, 0x1e, 0xb0, 0xbd,
  0x5d, 0x05, 0x0d, 0x3d, 0x0a, 0xc7, 0x31, 0x3d, 0xa3, 0xd9, 0xa1, 0xbd,
  0x52, 0xc8, 0xc7, 0xbd, 0xa5, 0xcc, 0xdd, 0xbd, 0xe1, 0xf3, 0x00, 0x3e,
  0xa2, 0xa4, 0x5a, 0x3d, 0xf2, 0x03, 0x37, 0xbd, 0x56, 0x03, 0x2c, 0xbe,
  0x9e, 0xd0, 0x0e, 0x3e, 0xa0, 0x0d, 0x2c, 0x3e, 0x36, 0x96, 0x0d, 0xbd,
  0x5c, 0xde, 0x1a, 0x3a, 0x56, 0x69, 0x44, 0x3e, 0x82, 0x51, 0x2a, 0x3b,
  0x33, 0x22, 0x68, 0xbd, 0xbc, 0x99, 0x13, 0xbe, 0x1f, 0x6e, 0xed, 0x3d,
  0x0c, 0x39, 0x4b, 0x3e, 0x64, 0x0c, 0xed, 0x3c, 0x5e, 0x06, 0x21, 0x3e,
  0x00, 0xb5, 0x6e, 0x3d, 0x09, 0x5f, 0xd4, 0x3d, 0xaa, 0x3c, 0x0a, 0xbd,
  0x39, 0xb2, 0x14, 0xbe, 0x17, 0x4b, 0x8e, 0xbd, 0x35, 0xaa, 0x56, 0x3d,
  0xff, 0xea, 0x4a, 0x3d, 0xd2, 0xbc, 0xd5, 0xbd, 0xb8, 0x0c, 0xd5, 0x3b,
  0x8c, 0xf5, 0x33, 0xbc, 0x0d, 0x88, 0x75, 0x3c, 0x08, 0x44, 0x2c, 0x3e,
  0xfc, 0x91, 0xd2, 0x3d, 0xa1, 0xc0, 0x33, 0xbe, 0xcc, 0x82, 0x14, 0x3e,
  0x53, 0x1b, 0xf5, 0x3d, 0x67, 0xb9, 0x69, 0xbd, 0x5b, 0x3c, 0xbd, 0x3c,
  0x9d, 0xde, 0x15, 0x3e, 0x3f, 0x00, 0x90, 0x3d, 0x04, 0x9d, 0xbc, 0xbd,
  0xd1, 0x7f, 0x36, 0xbe, 0x7f, 0x2c, 0x4a, 0x3e, 0xe4, 0x51, 0x04, 0x3e,
  0x36, 0xa1, 0x23, 0xbe, 0x65, 0x0c, 0x21, 0x3e, 0xa7, 0x18, 0x18, 0xbe,
  0xa6, 0x44, 0x9c, 0xbd, 0x3f, 0x0d, 0x8c, 0xbd, 0xba, 0x9b, 0x98, 0x3d,
  0x55, 0x74, 0xaa, 0x3d, 0x85, 0x95, 0xed, 0x3d, 0x02, 0xc1, 0xfa, 0x3d,
  0x17, 0x20, 0x26, 0xbd, 0x5d, 0xf2, 0x85, 0x3d, 0xce, 0x78, 0x22, 0xbe,
  0x50, 0x3e, 0x99, 0xbd, 0xbd, 0x18, 0xa4, 0xbd, 0xed, 0x57, 0x2a, 0xbe,
  0xb9, 0xe7, 0xe1, 0x3d, 0x6a, 0xe6, 0x2b, 0xbe, 0x6a, 0xd0, 0x36, 0xbe,
  0xa1, 0xc9, 0x34, 0xbe, 0xb6, 0x1e, 0x2e, 0xbe, 0x44, 0xe0, 0x56, 0x3d,
  0x9f, 0xf9, 0x06, 0xbe, 0x9a, 0x2e, 0x1f, 0x3e, 0x90, 0x46, 0xb6, 0x3d,
  0xcf, 0x61, 0x7c, 0x3d, 0x03, 0xa9, 0x45, 0xbe, 0x40, 0x68, 0xd2, 0xbd,
  0xaf, 0x0e, 0x04, 0xbe, 0x09, 0xd4, 0x32, 0xbd, 0x88, 0xdb, 0xbe, 0xbd,
  0x41, 0x55, 0xfb, 0x3d, 0xcc, 0xd5, 0xf4, 0x3d, 0x78, 0x0f, 0x4d, 0xbd,
  0xba, 0xf0, 0xdb, 0xbd, 0x82, 0x80, 0x3a, 0xbe, 0x60, 0x2c, 0x5e, 0xbd,
  0xf0, 0x5d, 0x71, 0xbd, 0x20, 0x3f, 0x05, 0x3e, 0xa8, 0x24, 0xa1, 0xbc,
  0xab, 0x5e, 0x20, 0xbe, 0x28, 0x50, 0x74, 0x3d, 0x9a, 0x9e, 0x1e, 0xbe,
  0x76, 0x46, 0x1a, 0x3e, 0x8c, 0xdb, 0x1c, 0xbe, 0xa2, 0xf2, 0xd7, 0xbd,
  0xda, 0x35, 0x4a, 0x3e, 0x76, 0xf7, 0x1e, 0x3e, 0x2e, 0x95, 0x41, 0x3e,
  0x26, 0xe9, 0x85, 0xbd, 0xa2, 0xba, 0x26, 0xbe, 0x3a, 0x5d, 0x27, 0xbe,
  0xf8, 0xa4, 0x16, 0xbd, 0x84, 0xa7, 0x19, 0x3e, 0x0a, 0x19, 0x02, 0xbe,
  0x88, 0x71, 0xde, 0x3d, 0x3c, 0xe3, 0xbc, 0x3d, 0xc4, 0x0b, 0x23, 0xbe,
  0x4a, 0x8d, 0x1a, 0x3e, 0x10, 0xef, 0x43, 0xbd, 0xc4, 0x0d, 0xae, 0x3d,
  0xb0, 0xd9, 0x4c, 0x3d, 0xca, 0x4d, 0xfe, 0xbd, 0x00, 0x51, 0xbe, 0xbd,
  0xcc, 0xab, 0x47, 0xbe, 0xa8, 0xd6, 0xd3, 0x3d, 0xc6, 0x5a, 0x43, 0x3e,
  0x89, 0x49, 0x2c, 0xbe, 0x5c, 0xf8, 0xf2, 0x3d, 0xc0, 0xeb, 0x89, 0xbd,
  0xa0, 0x46, 0x11, 0x3d, 0x98, 0xbb, 0x50, 0x3d, 0x54, 0x42, 0x80, 0x3d,
  0xc4, 0x58, 0x62, 0xbd, 0xb0, 0x9b, 0xb2, 0x3d, 0xfd, 0x61, 0xc3, 0xbd,
  0xce, 0xbf, 0x04, 0xbe, 0x28, 0x85, 0xe6, 0x3d, 0xf0, 0xc1, 0xbc, 0x3c,
  0x40, 0x9d, 0x3f, 0x3e, 0x3a, 0xff, 0xf6, 0xbd, 0x6a, 0x3b, 0x3d, 0xbe,
  0xec, 0x47, 0x28, 0xbd, 0x30, 0xa7, 0xd7, 0x3d, 0xe8, 0x8c, 0xdf, 0xbd,
  0x30, 0x32, 0x64, 0xbc, 0x63, 0x64, 0xf5, 0xbd, 0x10, 0x26, 0x10, 0xbe,
  0x68, 0xf5, 0x03, 0x3d, 0x28, 0x59, 0xf9, 0xbd, 0xc2, 0x53, 0x23, 0xbe,
  0x44, 0x11, 0xcb, 0x3d, 0x10, 0xd7, 0x66, 0xbd, 0x40, 0x65, 0x2e, 0x3e,
  0xe2, 0xc8, 0x07, 0x3e, 0x24, 0x7a, 0x95, 0xbd, 0x60, 0xc0, 0x6f, 0xbd,
  0x90, 0x3a, 0x2e, 0xbd, 0xcc, 0x1c, 0xd4, 0x3d, 0xbc, 0x0c, 0x19, 0x3d,
  0x18, 0xa5, 0xe6, 0x3c, 0x9f, 0x4a, 0xfe, 0xbd, 0xc0, 0x0a, 0x32, 0x3e,
  0xe2, 0x38, 0x0a, 0xbe, 0xf3, 0xbe, 0x1f, 0xbe, 0x0d, 0x8f, 0xae, 0xbd,
  0x40, 0xd9, 0x1c, 0xbd, 0xe8, 0xd5, 0x2a, 0x3e, 0xda, 0x06, 0x09, 0x3e,
  0x00, 0xc0, 0xdb, 0xb8, 0xfc, 0xd7, 0x12, 0x3e, 0x0e, 0x19, 0x90, 0xbd,
  0xb8, 0x20, 0x50, 0x3d, 0x5a, 0xb9, 0x35, 0xbe, 0x77, 0x07, 0xa8, 0xbd,
  0x10, 0xe0, 0x4d, 0x3d, 0x28, 0xdc, 0xad, 0xbc, 0x98, 0xf0, 0x07, 0x3d,
  0x30, 0x1f, 0x0d, 0xbe, 0x18, 0x85, 0x3f, 0x3d, 0xb5, 0xed, 0x25, 0xbe,
  0x7a, 0xf4, 0x3b, 0x3e, 0xa0, 0x97, 0x59, 0xbd, 0x58, 0x36, 0x74, 0x3d,
  0x5c, 0x01, 0x99, 0xbd, 0x90, 0x1a, 0x07, 0xbd, 0x72, 0xd8, 0xec, 0xbd,
  0x06, 0xc2, 0x30, 0xbe, 0x50, 0xe5, 0xda, 0xbc, 0xc8, 0x2b, 0xba, 0xbd,
  0xcc, 0xb5, 0x63, 0xbd, 0x5a, 0x7d, 0x3b, 0xbe, 0x18, 0xec, 0x0d, 0x3d,
  0x81, 0x71, 0x0d, 0xbe, 0xfe, 0x71, 0xd6, 0xbd, 0x99, 0xdc, 0x2a, 0xbe,
  0xe0, 0xf2, 0x15, 0xbd, 0x46, 0x0f, 0x46, 0x3e, 0x47, 0xb0, 0x2a, 0xbe,
  0x34, 0x7d, 0xbd, 0x3d, 0x4c, 0x88, 0x47, 0x3e, 0x60, 0x77, 0xe3, 0x3c,
  0x3e, 0x39, 0x2a, 0xbe, 0xa0, 0x45, 0x0f, 0x3e, 0x78, 0x70, 0x62, 0x3d,
  0x5c, 0xa4, 0x25, 0x3d, 0x8c, 0xda, 0x21, 0x3d, 0x80, 0xfd, 0xfa, 0x3d,
  0x98, 0xff, 0x07, 0x3e, 0x60, 0x71, 0x05, 0xbe, 0x14, 0x82, 0xf0, 0x3d,
  0x10, 0x5c, 0x05, 0x3c, 0xd6, 0x20, 0x45, 0x3e, 0xd8, 0xcd, 0x4e, 0x3e,
  0xe8, 0x55, 0x3c, 0xbe, 0x48, 0xd6, 0x30, 0x3e, 0x3a, 0x46, 0x43, 0xbe,
  0x5c, 0x67, 0x14, 0xbe, 0xcc, 0x62, 0xa8, 0x3d, 0xb0, 0x9f, 0x38, 0xbd,
  0x80, 0x4d, 0xec, 0xba, 0x47, 0x58, 0x45, 0xbe, 0x40, 0xa6, 0xe7, 0xbc,
  0xe0, 0xf0, 0x69, 0x3d, 0xf8, 0x82, 0x6e, 0xbd, 0x0d, 0xc9, 0x3e, 0xbe,
  0xd0, 0xc5, 0xdb, 0xbc, 0xe4, 0x7a, 0x8e, 0x3d, 0x80, 0x2b, 0xa8, 0x3b,
  0x80, 0x22, 0x7a, 0x3d, 0xa4, 0x80, 0x04, 0xbe, 0xca, 0x1b, 0x4a, 0x3e,
  0xd0, 0xa2, 0x84, 0x3d, 0x71, 0x64, 0x3c, 0xbe, 0x5d, 0x9e, 0xb3, 0xbd,
  0xd8, 0xbe, 0xa5, 0x3d, 0xbc, 0x28, 0xec, 0xbd, 0x4a, 0xd0, 0xbc, 0xbd,
  0x84, 0xf9, 0xd4, 0x3d, 0x2c, 0x68, 0xfa, 0xbd, 0xdc, 0xec, 0x02, 0xbe,
  0xa8, 0xfe, 0x48, 0x3d, 0xd1, 0x31, 0xd9, 0xbd, 0xd2, 0x29, 0xda, 0xbd,
  0x46, 0xc3, 0x4a, 0x3e, 0xe9, 0xba, 0x34, 0xbe, 0xc6, 0xe2, 0x80, 0xbd,
  0x34, 0x81, 0x0e, 0xbd, 0x50, 0xef, 0x14, 0xbe, 0x6c, 0x50, 0x38, 0x3d,
  0xae, 0x40, 0x2a, 0xbe, 0xa8, 0x30, 0x80, 0x3d, 0x91, 0x9c, 0xe1, 0xbd,
  0xf1, 0xd9, 0x04, 0xbe, 0x32, 0x79, 0x27, 0x3e, 0x3b, 0x7d, 0xb4, 0xbd,
  0x80, 0xee, 0x9d, 0xbc, 0x56, 0xac, 0x14, 0x3e, 0xe4, 0x70, 0x1f, 0x3e,
  0x3a, 0xe1, 0x02, 0xbe, 0xa8, 0x18, 0xcf, 0x3d, 0x60, 0xba, 0x58, 0x3c,
  0x54, 0x8e, 0x25, 0xbe, 0x90, 0x8c, 0x32, 0x3e, 0xe3, 0xbe, 0x4a, 0xbe,
  0xae, 0x5d, 0x37, 0x3e, 0xbc, 0x2b, 0x2d, 0xbe, 0x20, 0x1a, 0x12, 0x3e,
  0x50, 0x96, 0x43, 0x3d, 0x5c, 0xf0, 0xbd, 0x3d, 0x40, 0x23, 0x02, 0xbb,
  0xcc, 0x7b, 0xe9, 0x3d, 0xa8, 0xb9, 0x1f, 0x3e, 0x4c, 0xd3, 0x3e, 0x3d,
  0x50, 0x7a, 0x58, 0xbc, 0x74, 0x05, 0xc6, 0x3d, 0xee, 0x1d, 0x19, 0x3e,
  0xd6, 0x8a, 0x0b, 0x3e, 0x42, 0x1f, 0x1a, 0x3e, 0xa6, 0x94, 0x1a, 0xbe,
  0xd8, 0x8f, 0x97, 0x3d, 0x4e, 0xd2, 0x2d, 0xbe, 0xe8, 0x35, 0x2e, 0x3e,
  0xe6, 0x5e, 0x9e, 0xbd, 0x9f, 0x2c, 0x98, 0x3e, 0xba, 0x54, 0x6a, 0xbe,
  0xee, 0x0b, 0x1d, 0xbb, 0xfc, 0xd7, 0xbb, 0x3e, 0xae, 0xe0, 0xed, 0x3d,
  0x25, 0x5d, 0x09, 0x3e, 0xc9, 0xba, 0xf3, 0x3d, 0x0d, 0xec, 0x3e, 0xbe,
  0x83, 0x2d, 0x0e, 0x3e, 0xdd, 0xb2, 0xb6, 0x3d, 0x2b, 0xfc, 0xbc, 0xbd,
  0xa3, 0x43, 0x84, 0x3d, 0x44, 0x84, 0x77, 0x3d, 0x02, 0xf7, 0xcf, 0xbd,
  0x11, 0x3e, 0xf4, 0xbd, 0xfb, 0x37, 0x58, 0x3e, 0xa7, 0x01, 0x62, 0x3e,
  0x34, 0xa2, 0x03, 0xbc, 0xca, 0x62, 0xc3, 0x3e, 0x4a, 0xea, 0x7f, 0x3e,
  0x6f, 0x47, 0xd4, 0x3c, 0x3b, 0xd7, 0xa0, 0x3e, 0xb8, 0x76, 0xc7, 0xbd,
  0x46, 0x61, 0x46, 0xbe, 0x9c, 0x49, 0xd6, 0x3e, 0xe6, 0x1d, 0x8f, 0x3e,
  0x28, 0xeb, 0x53, 0x3d, 0x37, 0x35, 0xaa, 0x3e, 0xad, 0x8e, 0x33, 0x3c,
  0xc6, 0xc1, 0x24, 0x3e, 0x55, 0x79, 0xfa, 0x3d, 0x88, 0x28, 0xe4, 0x3c,
  0xb0, 0x9a, 0xdc, 0x3d, 0x64, 0xaf, 0x9e, 0x3e, 0xf4, 0xc3, 0x5d, 0x3e,
  0x5d, 0x51, 0x1a, 0x3e, 0x3c, 0x89, 0x65, 0x3e, 0x39, 0x53, 0x2e, 0x3e,
  0xe9, 0x06, 0x4b, 0x3e, 0x35, 0x8f, 0x0d, 0xbd, 0x38, 0x28, 0x87, 0xbd,
  0x6b, 0x8f, 0x2f, 0x3e, 0x36, 0xeb, 0xde, 0x3d, 0x29, 0xf3, 0xab, 0xbd,
  0x34, 0x1d, 0xf8, 0xbc, 0x32, 0x44, 0x31, 0x3d, 0x79, 0xf3, 0xce, 0x3d,
  0xfc, 0x4b, 0x53, 0x3d, 0x09, 0x2d, 0x3c, 0x3c, 0x82, 0x8a, 0x72, 0xbc,
  0x17, 0xc0, 0x4b, 0x3c, 0x20, 0x32, 0x0a, 0xbe, 0x81, 0x90, 0x3d, 0xbe,
  0xeb, 0x82, 0x0b, 0x3e, 0xf1, 0x59, 0xc0, 0xbd, 0x5f, 0xdf, 0x08, 0x3e,
  0x98, 0xe7, 0x81, 0x3c, 0x39, 0x12, 0xb4, 0xbd, 0x7a, 0xf0, 0x34, 0x3d,
  0x30, 0x1d, 0x9b, 0x3e, 0x1f, 0x97, 0x40, 0x3d, 0x20, 0x5a, 0xb1, 0x3c,
  0xe7, 0x6d, 0x3b, 0x3e, 0xce, 0x82, 0x51, 0xbe, 0x97, 0x22, 0x27, 0xbe,
  0xe8, 0xe4, 0x42, 0xbc, 0xbd, 0x6b, 0xa0, 0x3d, 0xde, 0xd8, 0x16, 0x3d,
  0xbb, 0xa5, 0x1e, 0x3e, 0xf1, 0x49, 0x15, 0xbe, 0xba, 0x77, 0x20, 0xbe,
  0x65, 0x32, 0x3d, 0x3e, 0xe5, 0xcd, 0x33, 0xbd, 0x77, 0x34, 0xa5, 0xbd,
  0x71, 0x74, 0xce, 0xbd, 0xa4, 0xff, 0x00, 0xbe, 0x01, 0x59, 0xd8, 0xbd,
  0x19, 0xf1, 0x05, 0xbe, 0x4a, 0x54, 0x4e, 0xbe, 0xa9, 0x83, 0x0f, 0x3d,
  0xf2, 0x2d, 0x5a, 0x3e, 0xd1, 0xb8, 0xd0, 0xbc, 0x6f, 0x57, 0x02, 0x3e,
  0x66, 0x4d, 0x7a, 0x3e, 0x61, 0x52, 0x2b, 0xbe, 0x1c, 0x4d, 0x59, 0xbd,
  0x40, 0xf8, 0x9f, 0xbc, 0x1f, 0x10, 0xbb, 0xbd, 0xcc, 0x33, 0xd6, 0x3d,
  0x6a, 0x8b, 0xf8, 0x3c, 0x85, 0x75, 0xef, 0x3d, 0x1e, 0x33, 0x15, 0xbe,
  0x1a, 0xf6, 0x11, 0x3e, 0xfd, 0x7b, 0x18, 0x3e, 0x2a, 0x35, 0x60, 0xbd,
  0x41, 0x64, 0x94, 0xbc, 0x69, 0xcb, 0xae, 0xbe, 0x30, 0x02, 0x4a, 0x3e,
  0x90, 0x45, 0x93, 0xbd, 0xca, 0xd4, 0xa9, 0xbd, 0x5c, 0xdf, 0x82, 0x3d,
  0xab, 0xe6, 0xc9, 0x3d, 0xe9, 0x15, 0xa5, 0xbd, 0x78, 0xd4, 0x3c, 0xbc,
  0x4d, 0xce, 0xb5, 0x3c, 0x64, 0xf3, 0xf6, 0x3b, 0xb6, 0x8d, 0x76, 0x3e,
  0x9c, 0x0c, 0xcb, 0x3b, 0xc2, 0xc1, 0xa4, 0xbe, 0xb0, 0xd5, 0x2e, 0x3e,
  0x0a, 0xf7, 0x83, 0x3d, 0xd4, 0xc6, 0x1f, 0x3d, 0x48, 0x37, 0x67, 0x3e,
  0x67, 0xc4, 0xec, 0x3d, 0x6c, 0x2e, 0x51, 0xbd, 0x8d, 0x68, 0x44, 0x3e,
  0x92, 0x15, 0x88, 0xbe, 0x00, 0x5f, 0x43, 0xbe, 0x0a, 0xe2, 0xeb, 0xbd,
  0x36, 0x7a, 0x93, 0xbe, 0x25, 0x61, 0xa6, 0xbd, 0x8a, 0xad, 0x10, 0x3e,
  0x9a, 0x02, 0x0b, 0xbe, 0x65, 0xbe, 0xa0, 0xbd, 0x2b, 0xc9, 0x29, 0x3e,
  0x46, 0xe0, 0x00, 0xbd, 0xdf, 0xf3, 0x0d, 0xbd, 0x4d, 0xf1, 0xfb, 0xbd,
  0x95, 0x6e, 0x90, 0xbd, 0xa4, 0xb8, 0x8c, 0x3b, 0x4d, 0x22, 0xaa, 0xbd,
  0x24, 0x63, 0x43, 0xbe, 0xf9, 0xc5, 0x2e, 0x3e, 0x50, 0xd2, 0x06, 0x3e,
  0xa5, 0x18, 0x3b, 0xbe, 0x18, 0x61, 0xaa, 0x3e, 0x7a, 0xb4, 0x4a, 0xbe,
  0xef, 0x8c, 0x40, 0x3d, 0x62, 0x2d, 0x16, 0x3e, 0x38, 0x6a, 0x0b, 0x3e,
  0xe4, 0x23, 0x6d, 0xbe, 0xe0, 0x02, 0xc0, 0x3d, 0xf5, 0x88, 0x0d, 0xbe,
  0x21, 0x10, 0xed, 0x3d, 0x34, 0x17, 0xb1, 0x3d, 0x07, 0x53, 0x57, 0x3e,
  0xb5, 0x35, 0xbe, 0x3d, 0xb4, 0x2d, 0xb4, 0x3e, 0xe4, 0x69, 0x5a, 0x3e,
  0x3c, 0x38, 0xa2, 0xbd, 0x8a, 0xe5, 0x49, 0x3e, 0x4d, 0xee, 0x6a, 0x3e,
  0x35, 0xf7, 0x27, 0x3e, 0xd7, 0x5d, 0xf6, 0x3c, 0x6a, 0x13, 0x72, 0x3e,
  0xd5, 0x5d, 0x6f, 0xbd, 0xe9, 0x45, 0x92, 0x3e, 0xaf, 0x84, 0xfa, 0x3d,
  0xcc, 0x0e, 0x9c, 0xbd, 0xc8, 0x2d, 0x94, 0x3e, 0x68, 0x19, 0x9e, 0x3d,
  0xf0, 0xef, 0x96, 0xbd, 0x7a, 0xd5, 0xb1, 0x3e, 0xf3, 0x62, 0x01, 0xbd,
  0xf6, 0x6e, 0x36, 0x3d, 0x47, 0x34, 0x90, 0x3e, 0xeb, 0xdc, 0x82, 0x3e,
  0x5e, 0x03, 0xaa, 0xbc, 0xba, 0x2f, 0x98, 0x3e, 0x87, 0x67, 0x33, 0xbd,
  0xcb, 0xaf, 0xfb, 0x3d, 0x1e, 0xe6, 0x2c, 0x3e, 0x95, 0x37, 0x63, 0x3e,
  0xb9, 0x13, 0xff, 0x3d, 0xc8, 0x94, 0x7c, 0x3e, 0xd1, 0x11, 0x9f, 0xbd,
  0x0b, 0x68, 0x00, 0x3e, 0x73, 0x87, 0x7e, 0x3d, 0xfb, 0x26, 0xd9, 0xbc,
  0xdb, 0xb3, 0x3c, 0xbd, 0x9f, 0xdf, 0x82, 0x3e, 0xc3, 0x2c, 0xd9, 0xbc,
  0xa0, 0x14, 0x47, 0x3d, 0xe1, 0x6d, 0xea, 0xbd, 0xe9, 0x21, 0x34, 0x3e,
  0xed, 0xea, 0xce, 0x3c, 0x2d, 0xae, 0x1a, 0x3e, 0xa6, 0x3e, 0x15, 0xbe,
  0xc3, 0x5e, 0x96, 0xbd, 0xed, 0xb6, 0x21, 0x3e, 0xa9, 0x2d, 0xd9, 0xbd,
  0xee, 0xd0, 0xc1, 0x3c, 0x98, 0x09, 0x48, 0x3d, 0xc6, 0x6b, 0x3d, 0x3e,
  0x88, 0xf1, 0xfa, 0x3c, 0xe2, 0x02, 0x4d, 0x3e, 0xc4, 0xad, 0x8d, 0xbd,
  0x00, 0x20, 0xba, 0x37, 0xa1, 0x1f, 0x24, 0xbe, 0xda, 0x1d, 0x06, 0xbe,
  0x44, 0x7e, 0x4c, 0x3e, 0xe0, 0xea, 0x8f, 0x3d, 0x4c, 0x40, 0x08, 0x3e,
  0x32, 0x97, 0x1c, 0x3e, 0x3c, 0xc1, 0xc7, 0x3d, 0xe4, 0x01, 0x12, 0xbe,
  0xa9, 0x89, 0x2a, 0xbe, 0x18, 0x5e, 0x2a, 0xbd, 0xb4, 0xd2, 0x6d, 0xbd,
  0x0a, 0x98, 0x86, 0xbd, 0x95, 0x40, 0xb1, 0xbd, 0xb0, 0x37, 0x4a, 0x3c,
  0xd8, 0xf9, 0x35, 0xbd, 0x08, 0x09, 0xf5, 0x3d, 0xc8, 0x6c, 0x15, 0xbd,
  0xc8, 0x7e, 0x27, 0xbd, 0x00, 0xbe, 0x15, 0x3e, 0x2e, 0x45, 0x05, 0xbe,
  0xd2, 0x42, 0xc1, 0xbd, 0xbc, 0x35, 0x87, 0x3d, 0x40, 0xf6, 0xa6, 0xbc,
  0x38, 0x63, 0x78, 0x3d, 0x4e, 0x4e, 0x32, 0xbe, 0x50, 0xd2, 0x22, 0xbd,
  0xa8, 0x95, 0x44, 0x3d, 0x44, 0xc2, 0x3e, 0x3d, 0xec, 0xde, 0x88, 0x3d,
  0xf5, 0x2e, 0x3d, 0xbe, 0x52, 0x19, 0x91, 0xbd, 0x32, 0x4a, 0x12, 0xbe,
  0xec, 0x04, 0xbd, 0x3d, 0xd2, 0x7c, 0x16, 0x3e, 0xde, 0x27, 0x44, 0x3e,
  0xe2, 0x73, 0x2f, 0x3e, 0x74, 0x52, 0x4c, 0x3e, 0xf1, 0xe2, 0x43, 0xbe,
  0x24, 0x2d, 0x7f, 0xbd, 0xcd, 0x74, 0xe7, 0xbd, 0x30, 0x19, 0xdb, 0x3d,
  0xfc, 0xcd, 0x45, 0xbe, 0x90, 0xfb, 0x05, 0x3d, 0x98, 0x99, 0x45, 0xbe,
  0x4c, 0x62, 0x88, 0x3d, 0x8e, 0x9d, 0x11, 0xbe, 0x10, 0xca, 0xa1, 0x3c,
  0xa0, 0x2e, 0x89, 0xbb, 0x70, 0xd8, 0x90, 0xbc, 0x55, 0xc6, 0xc3, 0xbd,
  0x58, 0x32, 0xc8, 0xbc, 0xbc, 0xf1, 0x1e, 0xbe, 0x2e, 0xee, 0x39, 0xbe,
  0x9e, 0x5a, 0x3e, 0x3e, 0x5c, 0x79, 0x96, 0xbd, 0x38, 0x3a, 0xc0, 0xbd,
  0x98, 0x9e, 0xc5, 0x3d, 0x48, 0x24, 0x08, 0xbd, 0xfc, 0x13, 0x05, 0xbe,
  0x3c, 0x4d, 0x04, 0x3d, 0xc8, 0x3d, 0xff, 0x3d, 0x60, 0xc5, 0x9a, 0x3d,
  0x34, 0x7d, 0x4c, 0xbd, 0xa0, 0x88, 0xa1, 0x3d, 0xfe, 0xaa, 0x0c, 0x3e,
  0x5c, 0x10, 0x29, 0x3e, 0x6c, 0x65, 0x00, 0xbe, 0x72, 0x6b, 0x4b, 0x3e,
  0xd0, 0xed, 0x0f, 0x3e, 0x2c, 0xdc, 0x03, 0xbe, 0x0c, 0x39, 0x6c, 0xbd,
  0xea, 0x06, 0x14, 0xbe, 0xa8, 0x26, 0x0d, 0x3d, 0x98, 0xb4, 0x7d, 0x3d,
  0xe0, 0x2c, 0xb1, 0xbb, 0x08, 0x72, 0xeb, 0xbd, 0x0d, 0x1e, 0xc3, 0xbd,
  0x75, 0xf2, 0x11, 0xbe, 0xd0, 0xd2, 0x02, 0xbd, 0x38, 0x6e, 0xe0, 0x3c,
  0xce, 0x05, 0x13, 0x3e, 0x82, 0x2b, 0x35, 0xbe, 0x74, 0x75, 0x8b, 0x3d,
  0x7c, 0x1a, 0xe3, 0x3d, 0xb6, 0x81, 0x23, 0xbe, 0x10, 0xeb, 0x84, 0x3d,
  0xe4, 0xfe, 0xed, 0x3d, 0xe8, 0xd4, 0xf4, 0x3d, 0x00, 0x30, 0xee, 0xb8,
  0x52, 0xb7, 0xc2, 0xbd, 0xce, 0x5d, 0xf4, 0xbc, 0xb7, 0xd9, 0xd1, 0xbd,
  0x59, 0xfa, 0x89, 0xbd, 0xc6, 0x7b, 0x8f, 0xbd, 0x91, 0x84, 0x0d, 0x3d,
  0xa9, 0xff, 0x8a, 0x3c, 0x1c, 0x2a, 0x47, 0xbe, 0xf1, 0x5b, 0xa3, 0x3d,
  0x49, 0xad, 0xf5, 0x3a, 0x3e, 0x48, 0x00, 0x3d, 0xee, 0xdd, 0x25, 0xbe,
  0xed, 0x34, 0x1f, 0x3d, 0x1d, 0x51, 0x02, 0x3e, 0x08, 0x3b, 0x84, 0x3d,
  0x4f, 0xdb, 0xbd, 0x3d, 0x0e, 0xbc, 0x96, 0xbd, 0xc1, 0xb2, 0x31, 0x3e,
  0x2f, 0xa7, 0xd9, 0xbc, 0x87, 0x22, 0x15, 0xbd, 0x06, 0x3f, 0x3c, 0x3e,
  0x50, 0x8f, 0x0d, 0x3d, 0xaf, 0x80, 0xa3, 0x3d, 0x6c, 0xe7, 0x21, 0x3e,
  0xb1, 0x94, 0x07, 0xbe, 0x30, 0x8a, 0x0e, 0x3e, 0x4c, 0xa6, 0x56, 0x3c,
  0x0b, 0xa5, 0x39, 0x3e, 0x70, 0x10, 0x1b, 0xbe, 0x9a, 0x62, 0xff, 0x3d,
  0x7e, 0x5c, 0x14, 0x3e, 0x08, 0x5b, 0x4e, 0xbe, 0x83, 0x9d, 0xfd, 0x3d,
  0x41, 0x3d, 0xf5, 0xbd, 0xde, 0x5f, 0x42, 0xbd, 0x72, 0x1c, 0xd1, 0xbd,
  0x44, 0xb1, 0xd2, 0x3d, 0xfe, 0xf9, 0xba, 0xbd, 0x1a, 0x2a, 0x04, 0xbe,
  0x6d, 0x96, 0x44, 0x3e, 0xf4, 0xcf, 0xcb, 0xbd, 0x2f, 0x32, 0x1b, 0xbd,
  0x20, 0x20, 0x1a, 0xbe, 0x54, 0x7b, 0x31, 0x3e, 0xac, 0x96, 0x77, 0x3d,
  0x49, 0x7a, 0x94, 0xbd, 0x2e, 0x03, 0xde, 0xbc, 0xee, 0x53, 0xbf, 0xbc,
  0xac, 0x90, 0xb6, 0xbd, 0x64, 0xa2, 0x39, 0xbe, 0x44, 0x60, 0x30, 0x3e,
  0xb1, 0x96, 0x33, 0x3d, 0x9b, 0xb3, 0x35, 0x3d, 0x50, 0xa8, 0xd4, 0xbd,
  0xf2, 0x7a, 0x90, 0x3c, 0xe1, 0xcd, 0x4c, 0xbe, 0x38, 0x2e, 0x23, 0xbd,
  0x5b, 0xe2, 0x25, 0xbd, 0x4e, 0x69, 0x63, 0x3d, 0x43, 0xef, 0x03, 0xbe,
  0x1d, 0x28, 0xa1, 0x3d, 0xdb, 0x21, 0xb7, 0xbc, 0xed, 0x49, 0x0b, 0x3d,
  0x24, 0x97, 0x94, 0xbb, 0xf3, 0x15, 0x03, 0xbd, 0x38, 0xe1, 0xbf, 0xbd,
  0xd9, 0xd3, 0xfd, 0x3d, 0x97, 0x10, 0x2f, 0xbe, 0xbd, 0x0c, 0x19, 0x3e,
  0xae, 0x2c, 0x3f, 0xbd, 0x73, 0xef, 0x4b, 0xbd, 0xf5, 0x93, 0x32, 0x3d,
  0x7a, 0x8f, 0x23, 0x3e, 0xda, 0x2b, 0x38, 0xbe, 0xed, 0x3d, 0x06, 0x3c,
  0x82, 0xfc, 0x03, 0x3e, 0x0e, 0xf2, 0x14, 0x3e, 0x27, 0x7b, 0x22, 0xbe,
  0x92, 0x58, 0x3c, 0xbe, 0xbb, 0xe6, 0x41, 0x3e, 0xc8, 0x7b, 0xa3, 0xbd,
  0x40, 0xa6, 0x9a, 0xbd, 0xdd, 0x19, 0xc1, 0x3d, 0xd3, 0x7a, 0xea, 0x3c,
  0xfe, 0x0c, 0xd8, 0xbd, 0x62, 0x7e, 0x28, 0x3e, 0x54, 0x07, 0x0c, 0x3d,
  0x9c, 0x4a, 0x10, 0x3b, 0x22, 0x44, 0x23, 0x3c, 0x4d, 0x36, 0x59, 0xbd,
  0xa2, 0x0f, 0xa5, 0xbc, 0x4b, 0x17, 0xb4, 0x3d, 0xf6, 0x74, 0x5d, 0xbc,
  0xc4, 0x5f, 0xa0, 0xbc, 0x6d, 0x74, 0x23, 0xbe, 0x7c, 0x19, 0x99, 0xbd,
  0xc5, 0xa6, 0xaf, 0x3d, 0xa7, 0x06, 0x44, 0x3e, 0xee, 0x46, 0x85, 0xbe,
  0x1f, 0xaa, 0x15, 0xbe, 0x4f, 0xc1, 0x97, 0x3d, 0x06, 0x2e, 0xe7, 0xbd,
  0x40, 0xd9, 0x93, 0xbd, 0xbd, 0x38, 0x82, 0x3e, 0x23, 0x38, 0x3c, 0xbe,
  0x1c, 0x37, 0xab, 0x3c, 0x75, 0xbe, 0xa7, 0x3d, 0xeb, 0xb6, 0xed, 0x3d,
  0x12, 0xfc, 0x66, 0x3e, 0x73, 0x18, 0xca, 0x3d, 0xd0, 0x84, 0x19, 0xbe,
  0xf6, 0xaa, 0x75, 0x3d, 0xe1, 0x0e, 0x5d, 0x3e, 0x48, 0x7d, 0x4d, 0xbe,
  0x3e, 0x8f, 0xd1, 0xbc, 0x42, 0x15, 0xdc, 0x3c, 0x07, 0xa9, 0x30, 0xbe,
  0x44, 0x4c, 0x2f, 0x3e, 0x18, 0x34, 0xa0, 0x3e, 0x04, 0x59, 0x76, 0x3d,
  0xb8, 0xe8, 0x30, 0x3e, 0xf3, 0x28, 0x7b, 0x3e, 0x98, 0x0d, 0x97, 0xbd,
  0x8c, 0xaf, 0xac, 0x3d, 0xe4, 0xed, 0x80, 0x3e, 0x54, 0x96, 0x66, 0x3e,
  0x68, 0xe0, 0xcf, 0x3d, 0x65, 0x3d, 0x85, 0x3e, 0xba, 0x49, 0x90, 0x3d,
  0xf6, 0x9e, 0x66, 0x3e, 0x32, 0x4b, 0x49, 0x3e, 0x5f, 0x38, 0x4c, 0x3e,
  0x8c, 0xe1, 0xc2, 0xbd, 0xf6, 0x96, 0x0d, 0xbe, 0xec, 0xed, 0x6f, 0xbd,
  0xad, 0x41, 0xcd, 0x3c, 0x7f, 0xec, 0x35, 0xbc, 0xae, 0xe2, 0x4b, 0x3e,
  0x31, 0x79, 0x5a, 0x3e, 0x22, 0xe9, 0xdc, 0x3c, 0x32, 0xbf, 0x34, 0x3d,
  0x56, 0x46, 0x6b, 0x3d, 0x4f, 0xa5, 0x0b, 0xbe, 0x01, 0xe5, 0x09, 0x3e,
  0xae, 0xff, 0x80, 0x3e, 0x05, 0x95, 0xdb, 0xbe, 0xa5, 0x3f, 0xcb, 0xbd,
  0x12, 0x1f, 0x0d, 0xbe, 0x59, 0xd2, 0x7f, 0xbd, 0x14, 0x42, 0xb6, 0xbc,
  0x30, 0x95, 0x01, 0x3e, 0x9e, 0x26, 0x30, 0xbe, 0xaa, 0x63, 0x84, 0xbc,
  0x3e, 0x7f, 0xdd, 0x3d, 0x7d, 0x75, 0x54, 0xbe, 0xbf, 0xee, 0x63, 0xbe,
  0xa5, 0xe8, 0x5b, 0x3e, 0xb9, 0x2b, 0xf4, 0xbd, 0xc3, 0xc9, 0xdd, 0xbd,
  0x21, 0x7f, 0x01, 0x3e, 0x31, 0x8c, 0xb7, 0xbe, 0x59, 0x68, 0xac, 0x3d,
  0x63, 0x26, 0xac, 0x3d, 0x3f, 0x05, 0x15, 0x3d, 0xd7, 0x8c, 0xf0, 0xbd,
  0x83, 0x0f, 0x32, 0xbe, 0x97, 0x3b, 0x76, 0xbe, 0x5e, 0xd9, 0x37, 0x3d,
  0x1d, 0x7b, 0xca, 0xbd, 0x82, 0x14, 0x85, 0xbe, 0x40, 0x0f, 0xdf, 0xbd,
  0xe1, 0xd6, 0x9a, 0xbd, 0x07, 0xe2, 0x9b, 0xbe, 0x43, 0xfe, 0x48, 0xbc,
  0xb6, 0x50, 0x3d, 0x3d, 0x67, 0x91, 0x1b, 0xbe, 0xc9, 0xc6, 0xa4, 0x3d,
  0xd6, 0xad, 0xfa, 0x3d, 0x33, 0xbc, 0xc9, 0xbd, 0xc2, 0x2b, 0x35, 0xbe,
  0xe7, 0xa6, 0xdb, 0x3d, 0x17, 0xeb, 0xa1, 0x3d, 0xe8, 0xae, 0xed, 0x3d,
  0x28, 0xac, 0x5e, 0x3c, 0x24, 0x70, 0x17, 0x3e, 0x92, 0x71, 0x5c, 0x3c,
  0x1c, 0x38, 0x08, 0xbe, 0xe0, 0x92, 0x22, 0x3e, 0xb8, 0xf3, 0xbf, 0xbd,
  0xba, 0x32, 0xf2, 0xbd, 0x0a, 0x0e, 0x30, 0xbe, 0x4e, 0x3f, 0xe0, 0x3d,
  0xff, 0x0a, 0x2b, 0xbd, 0xb3, 0x2f, 0xd0, 0xbd, 0x6d, 0x3e, 0x85, 0x3e,
  0x0f, 0x43, 0x73, 0xbc, 0xa6, 0xe4, 0x96, 0xbd, 0x8f, 0x65, 0x5b, 0x3e,
  0x03, 0x0c, 0x08, 0x3d, 0x3f, 0x54, 0x05, 0x3e, 0x79, 0x0b, 0xd4, 0xbd,
  0xad, 0x95, 0xd3, 0xbd, 0xbf, 0xc4, 0x24, 0xbe, 0x73, 0x18, 0x19, 0xbe,
  0xe9, 0x08, 0x4f, 0x3c, 0x84, 0xa2, 0x87, 0xbd, 0x42, 0xc3, 0x59, 0xbb,
  0xd7, 0xab, 0x20, 0xbd, 0x12, 0x88, 0x56, 0x3a, 0x10, 0x16, 0x05, 0xbd,
  0x79, 0xed, 0x8d, 0x3e, 0xf2, 0xe0, 0xb3, 0x3d, 0x9e, 0xfa, 0x43, 0x3e,
  0xbc, 0xb7, 0x99, 0x3e, 0x0f, 0xdf, 0xc3, 0xbd, 0x24, 0x32, 0xdb, 0xbc,
  0xbe, 0x68, 0xf6, 0xbb, 0x66, 0x05, 0xc1, 0x3d, 0x61, 0xa0, 0xb8, 0x3d,
  0x2d, 0x26, 0xb1, 0x3d, 0xf2, 0x4b, 0xf9, 0x3c, 0x8f, 0xe8, 0xef, 0xbd,
  0xf9, 0xc9, 0x00, 0xbd, 0x2c, 0xd1, 0x7e, 0xbc, 0x88, 0x56, 0x27, 0xbd,
  0x95, 0x70, 0x24, 0xbc, 0x14, 0xbd, 0xd4, 0x3d, 0x8c, 0x1e, 0xc3, 0x3d,
  0xe8, 0xbe, 0x4d, 0x3d, 0x62, 0x14, 0x58, 0xbe, 0x84, 0x38, 0x8f, 0x3d,
  0xec, 0x0c, 0xe6, 0xbd, 0x2b, 0x7e, 0xdb, 0x3d, 0x58, 0x28, 0x40, 0x3d,
  0x33, 0x49, 0x82, 0xbd, 0xf5, 0xb6, 0x9c, 0x3d, 0xfe, 0x35, 0x08, 0x3e,
  0xca, 0x0f, 0x4e, 0x3d, 0xdc, 0xe2, 0x3a, 0x3d, 0x13, 0x4d, 0xd2, 0xbd,
  0x1d, 0xf0, 0xda, 0x3d, 0xf9, 0xfb, 0x92, 0x3e, 0xea, 0xb9, 0x38, 0xbd,
  0xcf, 0xae, 0x23, 0x3d, 0x47, 0x38, 0xea, 0x3d, 0xdb, 0x58, 0x3b, 0x3e,
  0xd8, 0x01, 0x89, 0x3d, 0x8e, 0x5e, 0x7e, 0x3e, 0x8c, 0x43, 0x56, 0x3e,
  0xc2, 0xab, 0x42, 0x3e, 0x6b, 0x59, 0x03, 0x3e, 0xcc, 0xf0, 0x64, 0x3e,
  0xb2, 0xd2, 0x1d, 0x3e, 0xc8, 0xda, 0x90, 0xbc, 0x8b, 0x6a, 0xe1, 0xbc,
  0xdd, 0x73, 0x7c, 0xbc, 0xc5, 0xda, 0x2f, 0x3c, 0x8f, 0xf5, 0xb1, 0x3b,
  0x23, 0x31, 0xc5, 0xbc, 0xa6, 0x3f, 0x1f, 0x3e, 0xef, 0xa7, 0xd7, 0x3d,
  0xde, 0x78, 0x43, 0xbe, 0x1f, 0xfd, 0x01, 0x3e, 0x98, 0x28, 0x50, 0xbd,
  0xd6, 0x71, 0x0f, 0x3e, 0x67, 0x66, 0x8e, 0x3e, 0x29, 0xe8, 0x25, 0x3d,
  0x55, 0x50, 0x94, 0x3d, 0x27, 0x5b, 0x35, 0x3e, 0x9f, 0x15, 0x79, 0xbc,
  0xe8, 0xe3, 0xc8, 0xbd, 0x88, 0x51, 0x95, 0x3d, 0x62, 0xaf, 0x51, 0x3e,
  0x70, 0xff, 0x8b, 0x3d, 0x5e, 0x87, 0x60, 0x3e, 0x9a, 0x2b, 0x60, 0x3e,
  0x62, 0xab, 0x08, 0x3e, 0xc6, 0x63, 0x3a, 0x3e, 0xab, 0x06, 0xc6, 0x3d,
  0xda, 0x4e, 0x4a, 0x3d, 0x8d, 0x2f, 0x91, 0xbd, 0x83, 0x9c, 0x98, 0xbc,
  0xee, 0x89, 0x68, 0x3e, 0xbf, 0x0e, 0xa2, 0x3d, 0x71, 0x39, 0x68, 0x3e,
  0x56, 0x3e, 0xaf, 0x3d, 0xce, 0x7a, 0x58, 0x3d, 0xda, 0xe4, 0xe0, 0x3d,
  0x03, 0x7e, 0xfe, 0x3d, 0x85, 0xfb, 0x64, 0x3e, 0xef, 0xf8, 0x56, 0xbe,
  0x6e, 0x84, 0x25, 0x3e, 0xbe, 0x14, 0xc4, 0x3d, 0x07, 0xee, 0xdf, 0x3d,
  0x2b, 0xd0, 0x1c, 0xbe, 0x3e, 0xc9, 0xc5, 0x3e, 0x78, 0xa2, 0x5e, 0xbd,
  0x9b, 0xb5, 0xd1, 0x3d, 0x39, 0x76, 0x31, 0x3d, 0x48, 0x38, 0xb1, 0x3d,
  0x37, 0x44, 0x3c, 0xbd, 0x59, 0xf5, 0x84, 0x3e, 0xeb, 0xa6, 0x54, 0xbd,
  0x35, 0xe5, 0x16, 0xbe, 0x5b, 0x1c, 0xa8, 0x3e, 0x30, 0xad, 0xce, 0xbd,
  0x32, 0xc1, 0xe2, 0xbc, 0x82, 0x58, 0x9b, 0x3e, 0xf9, 0xd6, 0x48, 0xbd,
  0x0d, 0x1d, 0xf2, 0x3d, 0x65, 0xd1, 0xa9, 0x3e, 0xcf, 0xf6, 0x56, 0x3e,
  0x5f, 0x9c, 0x14, 0xbe, 0x40, 0x48, 0x81, 0x3d, 0x4b, 0x1e, 0xcd, 0x3c,
  0xd0, 0xdd, 0x05, 0x3e, 0xfb, 0x45, 0x64, 0x3e, 0xdc, 0x15, 0x52, 0x3e,
  0xee, 0xc3, 0x92, 0xbd, 0xa4, 0xf7, 0x17, 0x3d, 0x64, 0x45, 0x21, 0x3d,
  0x98, 0x8c, 0xd1, 0xbd, 0x8b, 0xf3, 0xc6, 0x3d, 0xf9, 0x32, 0x82, 0x3e,
  0xea, 0x47, 0x8f, 0x3e, 0xd4, 0x4a, 0x76, 0xbd, 0x2b, 0xcb, 0x46, 0x3e,
  0x10, 0x75, 0x0d, 0x3c, 0x53, 0x32, 0x26, 0x3e, 0x40, 0xa2, 0xa0, 0x3d,
  0x65, 0x12, 0x8f, 0x3d, 0x83, 0x6c, 0x4c, 0xbe, 0xda, 0x14, 0x99, 0x3d,
  0xc2, 0x60, 0xd6, 0x3c, 0x6f, 0x48, 0x75, 0xbe, 0xfa, 0xc1, 0xda, 0xbd,
  0x37, 0x01, 0xb4, 0xbd, 0xda, 0xf4, 0x46, 0xbe, 0x4a, 0xc7, 0xbf, 0x3d,
  0x6a, 0x71, 0xcb, 0x39, 0x2c, 0x8a, 0xb0, 0xbe, 0x86, 0x94, 0x4d, 0x3d,
  0xb3, 0x77, 0x3c, 0x3e, 0xfd, 0xac, 0x64, 0xbe, 0xe8, 0x95, 0x77, 0xbe,
  0x54, 0xb3, 0x15, 0x3e, 0x82, 0xf7, 0x46, 0xbe, 0x22, 0x3d, 0xdf, 0xbc,
  0x96, 0x90, 0x95, 0xbd, 0x9a, 0xa7, 0x43, 0xbe, 0x47, 0x08, 0x6f, 0xbd,
  0x8c, 0x18, 0x07, 0x3e, 0xac, 0x16, 0xe8, 0xbd, 0xd5, 0xcd, 0x86, 0xbd,
  0x69, 0xb1, 0x92, 0xbd, 0x0b, 0x1e, 0x41, 0xbe, 0x4b, 0x47, 0x09, 0x3e,
  0xb3, 0xa2, 0xb7, 0x3d, 0x28, 0x1c, 0x42, 0xbe, 0xef, 0x12, 0xae, 0x3d,
  0x00, 0x0d, 0x80, 0x3e, 0x51, 0x2c, 0x3e, 0xbe, 0xf0, 0x17, 0x38, 0xbe,
  0x5a, 0xc7, 0xf0, 0x3d, 0xa0, 0x1b, 0x42, 0xbe, 0x02, 0xad, 0x0c, 0x3d,
  0x88, 0x34, 0x10, 0x3e, 0x08, 0x24, 0x4f, 0xbe, 0xa2, 0x3a, 0x21, 0x3e,
  0xaf, 0xb3, 0x4e, 0x3e, 0x55, 0x7b, 0x6e, 0x3d, 0x6d, 0xcb, 0x91, 0x3d,
  0x6e, 0x1f, 0xc8, 0x3d, 0x33, 0x3e, 0x02, 0x3e, 0x3c, 0x61, 0x06, 0xbd,
  0xfd, 0x35, 0xf8, 0xbc, 0x4a, 0xa0, 0x0a, 0x3e, 0x9b, 0xd9, 0x46, 0x3e,
  0x60, 0xba, 0x2d, 0xbd, 0x21, 0xe2, 0xd9, 0x3d, 0x9f, 0xf5, 0xba, 0x3d,
  0x96, 0xe7, 0x31, 0x3e, 0x02, 0xc2, 0xde, 0xbd, 0x3f, 0x85, 0x5b, 0x3d,
  0x84, 0x25, 0x40, 0xbd, 0x3d, 0xd7, 0x1e, 0xbd, 0x29, 0x8c, 0x71, 0x3d,
  0x79, 0x2f, 0xcf, 0xbd, 0xdb, 0xca, 0x29, 0x3e, 0x44, 0x9d, 0xa5, 0x3d,
  0x3e, 0x17, 0xde, 0x3d, 0xfa, 0x8b, 0xe8, 0xbd, 0xe0, 0x45, 0xca, 0xbd,
  0xa2, 0x41, 0x44, 0x3e, 0x62, 0xef, 0xbb, 0x3c, 0x30, 0x0e, 0x29, 0xbe,
  0x29, 0x81, 0x83, 0x3d, 0x0d, 0xf3, 0x75, 0xbd, 0x6f, 0xfd, 0xd0, 0xbc,
  0x53, 0x9d, 0x42, 0xbe, 0xfa, 0x7f, 0xc9, 0xbc, 0xe0, 0x14, 0x39, 0xbe,
  0xe8, 0x63, 0xca, 0xbd, 0x0c, 0xd6, 0xee, 0xbd, 0x5e, 0xaa, 0x35, 0x3e,
  0xda, 0xbc, 0x39, 0x3e, 0x29, 0x21, 0x4b, 0xbe, 0x00, 0xf1, 0x35, 0x3e,
  0x90, 0xf7, 0x22, 0x3c, 0x32, 0x45, 0xb2, 0xbc, 0xe0, 0xf3, 0xf3, 0xbc,
  0x6b, 0x0a, 0x17, 0x3e, 0x03, 0xa5, 0x17, 0x3e, 0xf2, 0xb5, 0xf9, 0xbb,
  0xe1, 0x47, 0xa8, 0xbd, 0x71, 0x3c, 0xae, 0xbd, 0x64, 0xcf, 0x26, 0x3e,
  0x1e, 0x9f, 0xaa, 0xbc, 0x0d, 0xde, 0x1e, 0x3e, 0x99, 0x07, 0x5a, 0x3d,
  0x12, 0xa4, 0xf4, 0x3d, 0x8f, 0xc4, 0x38, 0x3d, 0xe6, 0x31, 0x9c, 0x3d,
  0xc0, 0xd7, 0xce, 0xbd, 0x22, 0xc0, 0x03, 0xbe, 0xc4, 0x55, 0xbd, 0x3c,
  0x44, 0xa4, 0x4b, 0xbe, 0xd1, 0x3c, 0xa4, 0x3d, 0x28, 0x13, 0xb0, 0x3d,
  0x8f, 0xb4, 0xf5, 0xbd, 0x03, 0x8e, 0xff, 0xbd, 0x70, 0x89, 0xec, 0x3d,
  0x14, 0x7b, 0xc1, 0xbc, 0x61, 0x4e, 0x2d, 0x3e, 0xe0, 0xca, 0x36, 0x3e,
  0x73, 0xf8, 0x08, 0x3e, 0xe8, 0x20, 0xf1, 0xbd, 0xaf, 0x13, 0x02, 0xbe,
  0x68, 0xf3, 0xba, 0xbd, 0x7a, 0xce, 0x8e, 0xbd, 0x7e, 0x2f, 0xde, 0xbd,
  0x12, 0x7d, 0x0a, 0x3e, 0x18, 0x18, 0xd5, 0x3c, 0x75, 0xf5, 0x44, 0x3d,
  0xc2, 0x8c, 0x14, 0xbe, 0x02, 0xaa, 0x3b, 0x3b, 0x89, 0xb2, 0x39, 0xbc,
  0xfe, 0x86, 0x0b, 0x3d, 0xb1, 0x6f, 0x8d, 0x3d, 0x88, 0x9a, 0x01, 0x3e,
  0x40, 0x0a, 0x9b, 0xbd, 0x25, 0xb7, 0x12, 0x3e, 0x2d, 0x45, 0xa8, 0x3d,
  0xfb, 0x9e, 0x00, 0xbe, 0xba, 0x7a, 0x87, 0xbd, 0x98, 0x61, 0x2c, 0xbe,
  0x64, 0xf4, 0xf7, 0xbd, 0x0c, 0x91, 0xcb, 0xbd, 0x63, 0xdf, 0x63, 0xbc,
  0xb9, 0xe6, 0x33, 0x3c, 0x7e, 0x31, 0x14, 0xbe, 0xe5, 0x91, 0x3e, 0xbe,
  0x65, 0x76, 0x2a, 0xbd, 0xc1, 0x16, 0x20, 0xbe, 0x4d, 0x1c, 0x21, 0x3e,
  0xbd, 0x2a, 0x07, 0x3e, 0x5f, 0x15, 0x9f, 0xbc, 0xa9, 0x2f, 0xaa, 0xbc,
  0x4a, 0xfb, 0x20, 0xbe, 0x21, 0x1d, 0x43, 0xbe, 0xb3, 0x28, 0x38, 0x3e,
  0x73, 0xb1, 0xce, 0x3d, 0xe6, 0xb3, 0x0a, 0xbe, 0x06, 0xeb, 0x0d, 0x3e,
  0x43, 0xa9, 0x56, 0xbd, 0xcd, 0x10, 0x0b, 0xbe, 0x60, 0xa6, 0x2a, 0x3e,
  0x3b, 0xdf, 0xc3, 0x3d, 0xb9, 0x8a, 0x43, 0x3e, 0xeb, 0x15, 0x9f, 0xbd,
  0xce, 0xc4, 0x3c, 0x3e, 0xf7, 0x57, 0x9f, 0x3d, 0x18, 0x60, 0xb6, 0xbd,
  0x25, 0x90, 0x6a, 0xbd, 0x76, 0xa0, 0xe6, 0x3a, 0x72, 0xa8, 0x55, 0x3d,
  0x39, 0x9b, 0x43, 0x3d, 0x3d, 0x01, 0x98, 0x3d, 0xab, 0x8d, 0xc5, 0x3d,
  0x81, 0x9d, 0x08, 0xbd, 0x3c, 0x70, 0xb7, 0xbd, 0xdb, 0x41, 0x96, 0x3d,
  0x28, 0xde, 0xac, 0x3d, 0x84, 0x45, 0xae, 0xbd, 0x03, 0x82, 0xb6, 0x3d,
  0x4b, 0xcc, 0x8d, 0x3d, 0x2b, 0x30, 0x17, 0xbe, 0x88, 0xf6, 0xee, 0xbd,
  0x4f, 0xd4, 0x16, 0x3d, 0x3e, 0x23, 0x37, 0x3e, 0xb8, 0xb8, 0x24, 0xbd,
  0x91, 0xfd, 0x26, 0xbd, 0x06, 0xac, 0xe2, 0xbc, 0x8f, 0x44, 0xb9, 0xbd,
  0x66, 0x0e, 0x9d, 0x3c, 0x63, 0x83, 0x1d, 0xbe, 0x53, 0x71, 0x89, 0xbd,
  0x76, 0x95, 0x18, 0x3d, 0xe3, 0x31, 0xfd, 0x3d, 0xbb, 0xef, 0xb4, 0x3d,
  0x0c, 0x86, 0x2c, 0x3e, 0xc2, 0x51, 0x2d, 0xbe, 0x03, 0x84, 0xfd, 0x3c,
  0xe3, 0x96, 0x17, 0xbe, 0x91, 0x00, 0x42, 0x3e, 0x46, 0x17, 0xe4, 0xbd,
  0x78, 0xc8, 0x87, 0xbd, 0x93, 0x9b, 0x26, 0x3e, 0x34, 0x63, 0xb3, 0x3d,
  0x75, 0xc7, 0x40, 0x3e, 0x26, 0x39, 0x96, 0x3c, 0x0e, 0x92, 0x2b, 0x3e,
  0x5c, 0xdb, 0xcf, 0xbc, 0x5b, 0x2a, 0x5b, 0xbc, 0xcd, 0xa9, 0xcf, 0x3c,
  0x6b, 0x41, 0xde, 0xbd, 0x38, 0x62, 0x8a, 0x3d, 0x85, 0xa2, 0xfb, 0x3d,
  0x5f, 0x33, 0x10, 0x3e, 0x90, 0x2f, 0xe8, 0x3d, 0x1d, 0xbf, 0x4c, 0xbe,
  0x0f, 0x73, 0x1c, 0x3d, 0xaa, 0x50, 0x6e, 0xbd, 0x63, 0x4f, 0xa6, 0xbc,
  0x39, 0xad, 0x10, 0xbe, 0x49, 0xb1, 0x25, 0xbd, 0x29, 0x46, 0x0b, 0xbe,
  0xec, 0xff, 0x19, 0xbc, 0xf3, 0x10, 0xa5, 0x3b, 0xd2, 0x5d, 0xe5, 0x3d,
  0xde, 0xd0, 0xe3, 0xbb, 0x7e, 0xbe, 0x22, 0xbe, 0xcd, 0xc2, 0x32, 0x3d,
  0x5e, 0x8b, 0x58, 0x3c, 0xd6, 0x70, 0xc1, 0x3d, 0x78, 0x38, 0x23, 0x3e,
  0x60, 0x28, 0x91, 0xbd, 0x64, 0x42, 0xf6, 0x3c, 0xee, 0xc7, 0x54, 0x3d,
  0xaf, 0xbb, 0x46, 0x3e, 0xe3, 0x7d, 0x4e, 0xbe, 0x2f, 0x02, 0x7b, 0xbd,
  0xd4, 0xa5, 0x28, 0xbd, 0x36, 0x5d, 0x1a, 0x3e, 0xc2, 0xf7, 0x9d, 0x3b,
  0xc0, 0xb5, 0x50, 0x3d, 0x8a, 0x03, 0xad, 0xbc, 0xb0, 0x66, 0xc2, 0x3d,
  0x09, 0xe9, 0x41, 0xbe, 0xa0, 0xff, 0x4a, 0xbe, 0xd6, 0x0a, 0xe3, 0xbd,
  0x34, 0x1d, 0x2a, 0xbe, 0xd9, 0xad, 0x96, 0xbd, 0x8e, 0x9d, 0x9f, 0xbd,
  0xcb, 0xa0, 0x1c, 0xbe, 0x43, 0x5c, 0x41, 0x3e, 0xc9, 0xf2, 0x8d, 0xbd,
  0xae, 0x3a, 0x8c, 0x3c, 0xbf, 0xcd, 0x0b, 0x3e, 0x0b, 0x22, 0xdf, 0x3d,
  0x24, 0x6c, 0x0a, 0xbe, 0xe9, 0x29, 0x03, 0x3e, 0x52, 0xb4, 0xbd, 0xbc,
  0x5d, 0x8e, 0x26, 0xbe, 0x2c, 0x43, 0x2b, 0xbc, 0x3b, 0x32, 0xe9, 0xbc,
  0x8d, 0xd5, 0x34, 0xbd, 0x04, 0x34, 0x55, 0x3e, 0x2c, 0x73, 0x38, 0xbe,
  0xa9, 0xa3, 0x07, 0x3e, 0xfe, 0xeb, 0xc0, 0x3d, 0x71, 0xcf, 0xab, 0xbc,
  0xb1, 0x53, 0x3b, 0xbe, 0x68, 0xaf, 0xb2, 0x3e, 0x7c, 0xa0, 0x08, 0xbe,
  0x66, 0xc7, 0x07, 0x3e, 0xda, 0xca, 0xb7, 0x3e, 0x89, 0xdd, 0xb2, 0x3d,
  0xf6, 0x2b, 0x36, 0x3d, 0x58, 0x01, 0x81, 0x3e, 0x13, 0xaf, 0x87, 0x3d,
  0x94, 0x42, 0xe6, 0x3d, 0xe3, 0xd5, 0xb9, 0x3e, 0x70, 0xe1, 0xe7, 0x3d,
  0x84, 0xa0, 0xa7, 0x3b, 0x03, 0xb9, 0x79, 0x3e, 0x0b, 0xb6, 0x94, 0xbd,
  0x60, 0xa4, 0xc4, 0x3d, 0xcb, 0x6c, 0x64, 0x3e, 0xbd, 0x13, 0x74, 0x3e,
  0x1c, 0x5c, 0x68, 0xbe, 0xa4, 0xd8, 0xb9, 0x3d, 0x6b, 0x5f, 0x86, 0x3e,
  0xbd, 0x09, 0xdb, 0x3d, 0xdb, 0x96, 0x7e, 0xbc, 0x44, 0x03, 0x8f, 0x3e,
  0x7b, 0x5b, 0xa1, 0x3d, 0x78, 0x10, 0x26, 0x3e, 0xc2, 0x5a, 0x40, 0xbd,
  0x2a, 0xf3, 0xf3, 0xbd, 0xe9, 0xaf, 0x9a, 0x3e, 0x9c, 0x06, 0xe8, 0xbd,
  0x4a, 0x67, 0x52, 0x3e, 0x0c, 0x08, 0xfd, 0xbc, 0x80, 0xe8, 0x04, 0xbe,
  0xc4, 0x70, 0x15, 0x3e, 0x9b, 0xf0, 0x7b, 0x3d, 0x50, 0xc8, 0xfa, 0xbd,
  0xe0, 0xa3, 0x1f, 0x3e, 0x86, 0x51, 0x35, 0x3e, 0x06, 0xf1, 0x3a, 0x3e,
  0xc4, 0x1d, 0x80, 0x3e, 0x83, 0x7a, 0xc7, 0xbd, 0x8b, 0x0e, 0xa6, 0xbd,
  0x96, 0xa0, 0xb6, 0xbd, 0xb5, 0x9c, 0x17, 0x3d, 0xb6, 0x86, 0x37, 0x3e,
  0x6d, 0xcf, 0x15, 0x3e, 0xf4, 0xa4, 0x19, 0xbe, 0x26, 0x53, 0x20, 0xbe,
  0x97, 0x61, 0xa9, 0x3d, 0x8b, 0x8e, 0x89, 0xbe, 0x17, 0x19, 0x60, 0xbe,
  0x56, 0x37, 0x00, 0x3e, 0x19, 0xf6, 0xef, 0xbd, 0x6b, 0x79, 0x1e, 0xbe,
  0x44, 0xa9, 0x74, 0x3d, 0x7e, 0x8b, 0x4b, 0xbd, 0x7d, 0xcd, 0xbc, 0xbd,
  0x23, 0x76, 0x1f, 0x3e, 0xd5, 0x3e, 0x88, 0x3d, 0x3e, 0x6d, 0x68, 0xbe,
  0xb0, 0xde, 0x72, 0x3d, 0xfa, 0xc6, 0xb4, 0x3d, 0x1c, 0x3c, 0x6b, 0xbe,
  0x1f, 0x18, 0x64, 0x3e, 0x0d, 0x97, 0x5b, 0xbe, 0x17, 0xf4, 0xbe, 0x3d,
  0x4d, 0x4a, 0x0d, 0x3e, 0x6e, 0x29, 0xf9, 0xbb, 0x57, 0x3b, 0x83, 0x3d,
  0xf8, 0x4e, 0xd7, 0xbd, 0xd3, 0x56, 0x07, 0xbc, 0x42, 0xac, 0x03, 0xbd,
  0x96, 0xcc, 0xf9, 0x3d, 0x67, 0xac, 0x86, 0xbe, 0xf6, 0x8e, 0xc6, 0xbd,
  0x12, 0x5a, 0x84, 0xbd, 0x52, 0x8e, 0xc3, 0x3b, 0x2a, 0xcc, 0x16, 0x3e,
  0xea, 0x9e, 0x1c, 0xbe, 0x89, 0x64, 0xd5, 0x3d, 0x28, 0x7c, 0x32, 0x3d,
  0x4d, 0xaa, 0x80, 0x3d, 0x45, 0xf0, 0x65, 0xbd, 0xeb, 0x30, 0xc9, 0xbd,
  0x2d, 0x0d, 0x23, 0x3e, 0x51, 0xb6, 0x84, 0xbc, 0x4d, 0x7a, 0x0f, 0xbe,
  0xd5, 0x4d, 0x49, 0x3e, 0xe9, 0x0c, 0xb1, 0xbc, 0x0b, 0x30, 0x4a, 0x3e,
  0x63, 0x0a, 0x54, 0x3e, 0x90, 0x84, 0xe2, 0x3a, 0x63, 0x48, 0xf5, 0x3d,
  0x16, 0x20, 0x6e, 0xbc, 0x72, 0x82, 0x32, 0x3e, 0xd8, 0x47, 0x8e, 0xbd,
  0xd6, 0xbb, 0xc7, 0xbd, 0xef, 0x28, 0x8c, 0x3c, 0x23, 0xff, 0x89, 0xbc,
  0x91, 0x0b, 0x36, 0x3e, 0x9d, 0x23, 0xd3, 0x3d, 0x2a, 0xd4, 0x0c, 0xbe,
  0xbb, 0x0d, 0xaa, 0xbd, 0x9c, 0xcc, 0x91, 0xbd, 0x2c, 0x7b, 0xe4, 0x3c,
  0x35, 0x34, 0xee, 0x3c, 0x4c, 0x8b, 0x8e, 0x3d, 0xdd, 0xcb, 0x01, 0xbe,
  0x21, 0x87, 0x3d, 0xbe, 0x7a, 0x34, 0x03, 0x3e, 0xeb, 0xd8, 0x35, 0x3e,
  0xdd, 0x2e, 0x2c, 0x3e, 0x76, 0x46, 0x8f, 0x3c, 0xe0, 0x16, 0xcf, 0xbb,
  0x3c, 0xca, 0x1e, 0xbe, 0xa9, 0x7e, 0xa3, 0x3d, 0x5f, 0xe2, 0x3c, 0x3e,
  0x09, 0xf0, 0x05, 0x3e, 0x8d, 0xdc, 0xe8, 0x3d, 0xa8, 0x9b, 0xa6, 0x3c,
  0xcb, 0x38, 0x8d, 0x3c, 0xff, 0xe3, 0x57, 0xbe, 0xd3, 0xba, 0x19, 0xbe,
  0xb1, 0xa5, 0x17, 0x3d, 0xa1, 0x98, 0x05, 0xbe, 0x8b, 0xd7, 0x94, 0xbd,
  0x4c, 0x59, 0x06, 0x3e, 0xa6, 0x7e, 0x5e, 0x3d, 0x3d, 0x99, 0xd9, 0xbd,
  0x3a, 0xa9, 0x06, 0x3e, 0x20, 0xb6, 0x90, 0xbd, 0x37, 0x81, 0xfc, 0x3d,
  0x12, 0x50, 0x27, 0xbe, 0x9f, 0x2e, 0x05, 0xbe, 0x36, 0x9b, 0x49, 0xbe,
  0xe8, 0x19, 0xf4, 0xbd, 0x23, 0xf6, 0xf8, 0xbd, 0x4b, 0x78, 0x8c, 0xbc,
  0x5f, 0x96, 0x2e, 0xbe, 0x26, 0xec, 0x6f, 0xbd, 0xcf, 0x1d, 0x42, 0xbe,
  0xef, 0x71, 0x43, 0x3e, 0x67, 0xb4, 0xed, 0x3d, 0xf6, 0x61, 0x0a, 0x3c,
  0x6e, 0xea, 0x5a, 0x3d, 0xe9, 0xef, 0xdd, 0x3c, 0xe4, 0x1a, 0xf5, 0xbd,
  0xe9, 0xce, 0x2e, 0xbe, 0x52, 0xf8, 0xb6, 0xbd, 0x4b, 0x04, 0xd9, 0x3d,
  0x84, 0xb7, 0x27, 0x3c, 0x86, 0x97, 0x0a, 0x3d, 0x8f, 0x36, 0x39, 0x3e,
  0x40, 0xf3, 0xfc, 0xbd, 0xff, 0xd0, 0xb6, 0x3d, 0x0d, 0x42, 0x8e, 0xbd,
  0x51, 0xbf, 0x26, 0x3e, 0xe7, 0x2b, 0x29, 0xbe, 0x3c, 0x23, 0x1b, 0x3e,
  0x68, 0x2d, 0x01, 0xbd, 0xad, 0x59, 0x05, 0x3d, 0xbb, 0xfd, 0xd9, 0xbd,
  0xe6, 0xa5, 0xb1, 0x3d, 0x56, 0x71, 0x2d, 0xbe, 0x16, 0x57, 0xce, 0x3d,
  0x1f, 0xa2, 0xaa, 0x3c, 0x3b, 0xe7, 0x12, 0x3d, 0x0f, 0xf5, 0x01, 0xbe,
  0x00, 0xf4, 0x30, 0xbc, 0x01, 0x31, 0xc1, 0x3d, 0x5a, 0x98, 0x6f, 0xbd,
  0x5e, 0x58, 0x04, 0x3e, 0x4e, 0x02, 0x56, 0xbe, 0x9c, 0x39, 0x8f, 0x3c,
  0x4e, 0x79, 0xf3, 0x3c, 0xb0, 0xa8, 0x87, 0x3d, 0xa5, 0xdb, 0x0e, 0x3e,
  0x9a, 0x9e, 0xa5, 0x3d, 0xfd, 0x80, 0x1f, 0x3c, 0xc7, 0xd8, 0x31, 0xbe,
  0x0d, 0x07, 0x40, 0x3e, 0x1d, 0xcd, 0x0d, 0xbc, 0x0a, 0x25, 0xd1, 0xbd,
  0xc7, 0x8b, 0xcd, 0x3d, 0x4c, 0x0f, 0x66, 0xbd, 0x20, 0x33, 0x57, 0xbe,
  0x36, 0x0d, 0x17, 0x3e, 0x4c, 0xa3, 0x42, 0xbe, 0xf6, 0x35, 0x4b, 0x3e,
  0x51, 0x98, 0x70, 0x3e, 0x20, 0x9e, 0x0c, 0xbe, 0x29, 0xad, 0xb9, 0x3d,
  0xd4, 0x81, 0xc3, 0xbd, 0x09, 0x7d, 0x9a, 0xbc, 0x98, 0x96, 0x30, 0xbc,
  0xc0, 0xc9, 0x23, 0xbe, 0xc3, 0xe9, 0x97, 0xbe, 0xd8, 0x93, 0x6a, 0x3e,
  0x63, 0x36, 0x83, 0xbd, 0x99, 0x1f, 0x90, 0xbe, 0xf3, 0xa8, 0x23, 0xbd,
  0xbb, 0x12, 0xc6, 0x3d, 0x89, 0x1e, 0x69, 0xbe, 0x67, 0xf3, 0xb1, 0xbd,
  0x2c, 0xbb, 0xf5, 0x3c, 0x95, 0x29, 0x05, 0xbe, 0x9a, 0x0d, 0x0c, 0xbe,
  0x13, 0x42, 0x5d, 0xbd, 0xd2, 0xf1, 0x79, 0xbd, 0xcb, 0x2e, 0xdf, 0x3d,
  0x8c, 0x61, 0x44, 0xbe, 0xcf, 0xb3, 0xa5, 0xbd, 0x3f, 0xb2, 0x43, 0x3d,
  0x23, 0xdb, 0x2c, 0xbe, 0xc1, 0xcc, 0x4f, 0x3c, 0xde, 0x83, 0xa5, 0x3d,
  0xe9, 0xbe, 0x64, 0xbc, 0xd6, 0x7c, 0xfa, 0xbd, 0x69, 0x45, 0xc2, 0x3d,
  0x76, 0xbe, 0xce, 0xbd, 0x8c, 0x52, 0xb9, 0x3c, 0xab, 0xdd, 0x3c, 0xbd,
  0xc5, 0xd5, 0x33, 0xbd, 0xb7, 0x4a, 0xa3, 0x3d, 0x1a, 0xcb, 0xc4, 0x3d,
  0xb4, 0x02, 0x1f, 0xbe, 0xad, 0x3f, 0x96, 0x3e, 0x4a, 0x1d, 0xe9, 0xbd,
  0x07, 0x6f, 0xcc, 0xbd, 0x8e, 0x44, 0xb2, 0x3e, 0x10, 0xbe, 0x12, 0x3e,
  0x7b, 0x3c, 0xfe, 0xbd, 0xb6, 0x8b, 0x86, 0x3e, 0xd6, 0x19, 0x18, 0x3e,
  0x11, 0x8c, 0x34, 0x3d, 0x7e, 0x43, 0xa1, 0x3e, 0x13, 0x5e, 0x4e, 0x3e,
  0x54, 0x9a, 0x52, 0x3d, 0x03, 0x78, 0x68, 0x3e, 0x7e, 0xb8, 0xb9, 0x3d,
  0x85, 0x46, 0x48, 0xbe, 0x8a, 0xe6, 0xa9, 0x3e, 0xc0, 0x5e, 0x97, 0x3c,
  0xcb, 0x99, 0x62, 0xbe, 0x16, 0x02, 0xb0, 0x3e, 0x2b, 0x0a, 0xe9, 0x3c,
  0x4a, 0xfd, 0xe3, 0xbb, 0x41, 0xf0, 0x99, 0x3e, 0x26, 0xf1, 0x03, 0x3e,
  0xcc, 0xfa, 0xb1, 0x3d, 0xb7, 0xba, 0x27, 0x3e, 0x54, 0x31, 0x19, 0x3d,
  0x07, 0x14, 0x22, 0x3d, 0x48, 0xc8, 0x95, 0x3d, 0x22, 0xf0, 0xaf, 0x3d,
  0x91, 0x82, 0x9d, 0x3d, 0xb8, 0xc0, 0x8e, 0x3e, 0x4d, 0xf0, 0xe8, 0xbd,
  0x9f, 0xf7, 0x63, 0xbd, 0x60, 0x6e, 0x7c, 0x3e, 0xac, 0x7b, 0x0c, 0x3e,
  0xb6, 0xb6, 0x0b, 0xbd, 0x71, 0x85, 0xe3, 0x3c, 0x73, 0xfc, 0x04, 0x3d,
  0xbe, 0xf0, 0x49, 0x3d, 0x0e, 0x8b, 0x40, 0x3e, 0x76, 0x44, 0x09, 0xbd,
  0x70, 0x2f, 0x2b, 0x3e, 0x48, 0x0a, 0x82, 0x3d, 0xb1, 0xc3, 0x77, 0x3d,
  0x82, 0x5c, 0x0d, 0xbe, 0x15, 0x2a, 0x51, 0x3e, 0x62, 0x0e, 0xfd, 0x3b,
  0xc4, 0x7c, 0x1c, 0xbe, 0xec, 0xe4, 0x63, 0xbc, 0x80, 0xb9, 0x7d, 0x3d,
  0x42, 0x18, 0x1c, 0x3e, 0x8c, 0x4a, 0xbf, 0x3d, 0x84, 0x90, 0xfc, 0xbc,
  0x86, 0x7d, 0x24, 0x3e, 0xe0, 0x4c, 0x62, 0x3e, 0xb6, 0xfe, 0x11, 0x3e,
  0x5e, 0x0a, 0xcc, 0x3d, 0x70, 0xd0, 0x4a, 0x3d, 0xd6, 0x98, 0xc4, 0xbd,
  0x7b, 0x0a, 0xe1, 0xbd, 0xec, 0x63, 0xae, 0xbd, 0x54, 0x83, 0xc0, 0x3d,
  0xc0, 0x1b, 0x57, 0xbd, 0x40, 0xf0, 0x48, 0x3d, 0x7a, 0xf2, 0x2b, 0x3e,
  0x4e, 0xce, 0x43, 0xbe, 0x96, 0x69, 0x3b, 0x3e, 0xb2, 0x24, 0x29, 0x3e,
  0x08, 0x11, 0x84, 0x3c, 0xd4, 0xad, 0x55, 0xbd, 0xbe, 0xed, 0xe2, 0xbd,
  0x60, 0x23, 0xa3, 0xbb, 0xd4, 0x38, 0x07, 0x3e, 0xb8, 0x1e, 0x46, 0xbe,
  0xd8, 0x3c, 0x2e, 0x3d, 0xd0, 0xe5, 0x2b, 0x3d, 0x44, 0xd3, 0x94, 0x3d,
  0xbc, 0xbf, 0xbb, 0x3d, 0x08, 0xee, 0xa6, 0x3d, 0x28, 0x22, 0x5c, 0x3d,
  0x94, 0xf2, 0x4d, 0xbe, 0xcc, 0x02, 0x0f, 0xbd, 0x40, 0x91, 0xe8, 0x3b,
  0x88, 0x1e, 0xd7, 0x3d, 0x20, 0x0b, 0xd4, 0x3b, 0xe9, 0xd4, 0x1c, 0xbe,
  0xb6, 0x96, 0x3e, 0x3e, 0xb0, 0x8b, 0x94, 0x3d, 0xf0, 0xf9, 0xb8, 0xbc,
  0xae, 0x00, 0x37, 0xbe, 0xb4, 0xeb, 0x8c, 0x3d, 0x7c, 0xbf, 0xf0, 0x3d,
  0x96, 0x21, 0x16, 0x3e, 0x0c, 0x09, 0x8f, 0x3d, 0x84, 0x8c, 0x0f, 0xbe,
  0x6e, 0x54, 0x16, 0xbe, 0x64, 0x3f, 0xd9, 0x3d, 0x80, 0x94, 0x0b, 0x3d,
  0x6a, 0xc2, 0x48, 0x3e, 0xc8, 0x4a, 0x33, 0xbe, 0x40, 0xad, 0x46, 0x3b,
  0x50, 0x5b, 0x34, 0x3e, 0x54, 0xcc, 0xe5, 0x3d, 0x2e, 0x0d, 0x3d, 0xbe,
  0x2c, 0xc6, 0x28, 0xbe, 0x10, 0x47, 0x4e, 0xbe, 0xb2, 0x31, 0x32, 0x3e,
  0xc2, 0x8d, 0x24, 0x3e, 0x8d, 0x0e, 0x02, 0xbe, 0x82, 0xa7, 0x44, 0xbe,
  0x10, 0x11, 0x5c, 0xbc, 0x3c, 0x8f, 0xc2, 0x3d, 0xa4, 0xab, 0x31, 0x3d,
  0xac, 0x97, 0x05, 0x3d, 0xdf, 0x9a, 0x3c, 0xbe, 0x8b, 0x3f, 0x10, 0xbe,
  0xd5, 0xf5, 0x45, 0xbe, 0xcc, 0x45, 0x1e, 0xbe, 0xe6, 0x04, 0x45, 0xbe,
  0x97, 0x07, 0x4c, 0xbe, 0x78, 0xd0, 0xcd, 0xbc, 0xd8, 0x28, 0xad, 0x3c,
  0x92, 0x27, 0xbe, 0xbd, 0x0c, 0x59, 0x11, 0x3e, 0xd8, 0x90, 0xca, 0xbd,
  0xd4, 0xbf, 0x34, 0x3d, 0x20, 0x4e, 0x33, 0xbe, 0xca, 0x47, 0x11, 0x3e,
  0x7d, 0x55, 0x1a, 0xbe, 0xb2, 0x07, 0xa4, 0xbd, 0xbc, 0xbf, 0x8d, 0x3d,
  0x9f, 0xc8, 0xe0, 0xbd, 0x74, 0xd8, 0x47, 0xbd, 0xe6, 0x13, 0xc4, 0xbd,
  0xc8, 0x43, 0x18, 0x3e, 0x8b, 0xe4, 0xb4, 0xbd, 0xcc, 0xd1, 0x27, 0x3e,
  0xb8, 0xe8, 0x16, 0x3e, 0x6a, 0x5a, 0x9c, 0xbd, 0x0c, 0x31, 0x85, 0xbd,
  0xba, 0x7e, 0x8f, 0xbd, 0x99, 0x31, 0xd1, 0xbd, 0xec, 0x5d, 0xf3, 0x3d,
  0x3c, 0x90, 0xd9, 0xbd, 0x50, 0x5d, 0xba, 0xbc, 0x48, 0x79, 0x05, 0xbe,
  0x94, 0x5d, 0xa7, 0x3d, 0x30, 0x34, 0xb7, 0x3d, 0x3e, 0x48, 0x2a, 0x3e,
  0x79, 0x77, 0x0c, 0xbe, 0x2c, 0xa2, 0x39, 0x3e, 0xf0, 0xf4, 0xb6, 0x3d,
  0x32, 0xba, 0x0b, 0x3e, 0x64, 0xbf, 0x17, 0x3e, 0x08, 0x30, 0x10, 0xbd,
  0x00, 0x39, 0x8d, 0xbd, 0xe0, 0x69, 0xf6, 0xbd, 0xac, 0xbe, 0xd6, 0xbd,
  0x4c, 0xb4, 0x04, 0xbe, 0x10, 0x47, 0x37, 0xbe, 0x39, 0x33, 0x42, 0xbe,
  0x48, 0xcc, 0x12, 0xbe, 0x7a, 0x31, 0x4a, 0xbe, 0xc8, 0x0c, 0x46, 0x3d,
  0x88, 0x97, 0x09, 0xbe, 0x98, 0xc4, 0xe8, 0x3c, 0xa0, 0xd2, 0xac, 0xbb,
  0x78, 0xe6, 0xfa, 0x3d, 0x9c, 0x87, 0xac, 0x3d, 0x0a, 0x4e, 0x3b, 0xbe,
  0x30, 0x9e, 0x3d, 0x3c, 0xb8, 0x32, 0x4c, 0x3d, 0x88, 0x7b, 0x91, 0xbc,
  0x30, 0x4d, 0x2d, 0x3d, 0x61, 0x03, 0x15, 0xbe, 0x5a, 0x2f, 0x27, 0x3e,
  0x58, 0x00, 0xba, 0x3d, 0x55, 0xe7, 0x11, 0xbe, 0x70, 0x71, 0x12, 0x3c,
  0x00, 0x3d, 0xf7, 0xba, 0x60, 0x35, 0x42, 0xbc, 0x43, 0xde, 0xbb, 0xbd,
  0xbc, 0x28, 0xf5, 0x3d, 0xec, 0xf7, 0x37, 0x3e, 0x80, 0x49, 0x20, 0x3e,
  0x04, 0x62, 0x2c, 0x3e, 0xc6, 0xa6, 0x89, 0xbd, 0xbc, 0xd8, 0x93, 0x3d,
  0x6c, 0xcd, 0x13, 0x3e, 0x08, 0xdc, 0x1e, 0x3e, 0xee, 0xd6, 0x20, 0x3e,
  0x16, 0x00, 0xaa, 0xbd, 0x04, 0xc5, 0x43, 0xbe, 0x32, 0x45, 0x3a, 0x3e,
  0xb4, 0x2a, 0x1f, 0xbd, 0xd8, 0xf4, 0xcf, 0xbd, 0x38, 0xb5, 0x13, 0xbe,
  0x66, 0xa1, 0x01, 0x3e, 0x28, 0x58, 0x11, 0xbd, 0xc0, 0xfb, 0x20, 0xbe,
  0x44, 0x3f, 0x45, 0xbd, 0xd0, 0xa4, 0xa7, 0x3d, 0xde, 0xbe, 0x1b, 0x3e,
  0x18, 0x1d, 0xae, 0x3d, 0x5a, 0x81, 0x03, 0x3e, 0xa0, 0x22, 0xc6, 0x3d,
  0xb8, 0xa2, 0x47, 0x3d, 0x2e, 0x71, 0xf9, 0xbd, 0x34, 0x20, 0xa9, 0x3d,
  0x06, 0x8a, 0x95, 0xbd, 0x6f, 0xb4, 0xd6, 0xbd, 0x0a, 0xec, 0x4e, 0x3e,
  0xa3, 0x2f, 0x43, 0xbe, 0xfa, 0x03, 0xe4, 0xbd, 0x67, 0xc0, 0xaf, 0xbd,
  0xb8, 0x69, 0xaa, 0x3c, 0x28, 0x5e, 0x64, 0x3d, 0x4c, 0xf6, 0x2a, 0xbd,
  0x94, 0xaa, 0xc4, 0x3d, 0x1e, 0xd3, 0x21, 0xbe, 0xa7, 0xd5, 0xe3, 0xbd,
  0x6c, 0x19, 0x2a, 0xbd, 0x34, 0x54, 0x8e, 0x3d, 0x47, 0xe0, 0xea, 0xbd,
  0x40, 0x65, 0x46, 0x3d, 0x36, 0x00, 0xae, 0xbd, 0x84, 0xfa, 0xbd, 0xbd,
  0x86, 0x7e, 0x4a, 0x3e, 0x65, 0xa5, 0xb6, 0xbd, 0xf1, 0xa7, 0x36, 0xbe,
  0x50, 0x95, 0x1d, 0x3c, 0xec, 0x43, 0x1f, 0xbe, 0x07, 0xc2, 0x2b, 0xbe,
  0x50, 0x00, 0x67, 0xbd, 0x00, 0x0c, 0x8a, 0xba, 0xc8, 0xe4, 0xcc, 0x3c,
  0x16, 0x6a, 0xf9, 0xbd, 0x60, 0x70, 0x5d, 0xbc, 0x4a, 0x78, 0xbf, 0xbd,
  0xc8, 0x68, 0x27, 0x3d, 0xbc, 0xbd, 0xe6, 0x3d, 0x1d, 0x0a, 0x10, 0xbe,
  0xc0, 0x2c, 0xd6, 0x3b, 0xd0, 0x32, 0x47, 0x3d, 0xd4, 0x17, 0x0d, 0xbe,
  0x4c, 0x78, 0x3a, 0xbe, 0xf7, 0xa7, 0xf9, 0xbd, 0xe4, 0xc5, 0x10, 0xbd,
  0xe5, 0xe7, 0xdc, 0xbd, 0xe1, 0x13, 0xb5, 0x3e, 0x75, 0xd8, 0x67, 0xbe,
  0x0f, 0x27, 0x63, 0xbe, 0x34, 0x04, 0xd0, 0x3e, 0xd1, 0x9e, 0xde, 0xbd,
  0x10, 0x2b, 0x60, 0x3d, 0x03, 0xb2, 0x97, 0x3e, 0x9d, 0x79, 0xd1, 0xbd,
  0x49, 0x3b, 0xee, 0x3d, 0x2e, 0x6e, 0xb4, 0x3d, 0x32, 0xce, 0x02, 0x3e,
  0xff, 0x2b, 0x3c, 0x3d, 0x25, 0x0d, 0xb1, 0x3e, 0x0c, 0x77, 0x5a, 0xbe,
  0x3e, 0xa7, 0x01, 0xbc, 0xbd, 0x4f, 0xc5, 0x3e, 0xec, 0x8d, 0x3b, 0x3e,
  0xe4, 0x87, 0x1e, 0x3d, 0xe6, 0x7e, 0x5a, 0x3e, 0x13, 0x31, 0x41, 0x3e,
  0x98, 0x55, 0x86, 0x3e, 0x64, 0x6d, 0x2a, 0x3d, 0x97, 0xc7, 0x20, 0x3e,
  0xbe, 0x8a, 0x7f, 0x3e, 0x8e, 0xbf, 0xd9, 0x3d, 0xe9, 0x16, 0xef, 0x3c,
  0x2d, 0xac, 0xb3, 0xbd, 0x2c, 0x12, 0x01, 0x3e, 0xdd, 0xff, 0xae, 0xbc,
  0xff, 0x9e, 0xdf, 0x3d, 0x6c, 0x70, 0x5c, 0x3e, 0xa9, 0x5b, 0x71, 0x3e,
  0xfa, 0x0c, 0x4b, 0x3e, 0x87, 0xe1, 0xdd, 0x3d, 0xe7, 0x51, 0x9e, 0xbd,
  0x72, 0x50, 0xc1, 0x3b, 0x31, 0x24, 0xc9, 0x3c, 0x74, 0xb1, 0x4f, 0xbd,
  0x8a, 0xd3, 0x71, 0x3e, 0xea, 0x44, 0x6a, 0xbe, 0x5f, 0x13, 0x3e, 0x3e,
  0xe8, 0x19, 0x93, 0xbd, 0xb6, 0x4d, 0xe2, 0x3c, 0x02, 0xd6, 0x5b, 0x3e,
  0x68, 0xa3, 0x32, 0x3d, 0xd9, 0xc6, 0x6d, 0xbe, 0x20, 0xda, 0x1c, 0xbe,
  0xdd, 0x50, 0x8d, 0xbd, 0x2d, 0x7e, 0xb6, 0xbe, 0xcc, 0x01, 0x6d, 0xbd,
  0x5a, 0x51, 0x38, 0xbd, 0x9f, 0xd3, 0xc6, 0xbe, 0xf3, 0xb0, 0x7e, 0xbe,
  0x16, 0xbc, 0x2c, 0x3e, 0x85, 0x20, 0x9c, 0xbe, 0x47, 0x77, 0xdf, 0x3b,
  0x01, 0xe1, 0xbf, 0x3d, 0x9e, 0x0f, 0xa4, 0xbe, 0xbb, 0xbf, 0xae, 0xbc,
  0xe7, 0x49, 0x40, 0x3e, 0x3b, 0x3e, 0xa0, 0xbe, 0x51, 0x41, 0x43, 0xbe,
  0xba, 0x44, 0x8f, 0x3d, 0x03, 0x3c, 0xbe, 0xbe, 0x62, 0xce, 0xd6, 0x3b,
  0xc4, 0x58, 0xf6, 0x3c, 0x31, 0x2f, 0x84, 0xbe, 0xcc, 0x30, 0x99, 0x3d,
  0x42, 0xe6, 0x0c, 0xbe, 0xe8, 0xff, 0x8d, 0xbc, 0xe5, 0xf1, 0x0f, 0xbe,
  0x78, 0x75, 0x5d, 0x3e, 0x80, 0x85, 0x93, 0xbe, 0x15, 0x9c, 0xb2, 0xbd,
  0x84, 0x43, 0x05, 0x3e, 0x2f, 0xdb, 0x18, 0xbe, 0x43, 0xbf, 0x00, 0x3e,
  0x56, 0xdc, 0x23, 0xbb, 0xc9, 0xf0, 0x44, 0xbd, 0x77, 0xe0, 0x2d, 0xbd,
  0x57, 0xff, 0xde, 0xbd, 0xaa, 0xbc, 0xcf, 0xbd, 0xc8, 0x87, 0x38, 0xbe,
  0xa5, 0x90, 0x96, 0x3d, 0xc3, 0x60, 0x51, 0x3d, 0x7e, 0x82, 0x1f, 0xbd,
  0x9a, 0xdf, 0xbe, 0xbd, 0x69, 0x65, 0x0e, 0x3d, 0xb7, 0x89, 0xa5, 0x3d,
  0x0c, 0x9d, 0xe9, 0xbc, 0x92, 0xb1, 0x23, 0x3e, 0xee, 0xf5, 0x37, 0x3e,
  0x17, 0x50, 0x86, 0xbd, 0xc5, 0x1c, 0x9c, 0xbc, 0x76, 0x2e, 0x32, 0x3d,
  0x62, 0xf2, 0xbc, 0xbd, 0x86, 0xa8, 0x8a, 0x3e, 0xee, 0xf7, 0x7a, 0xbe,
  0xbf, 0xec, 0xd6, 0x3d, 0x31, 0xaf, 0x0a, 0x3e, 0xa9, 0x54, 0x28, 0xbe,
  0xb1, 0x20, 0xa3, 0xbd, 0x62, 0xa1, 0x72, 0x3e, 0x97, 0x95, 0xcf, 0xbc,
  0x43, 0xd8, 0x0e, 0xbe, 0x84, 0x57, 0x7f, 0x3d, 0xa7, 0xa4, 0x9e, 0x3d,
  0xc8, 0x65, 0xc2, 0x3d, 0x04, 0xb9, 0x7b, 0x3e, 0x55, 0x97, 0x9f, 0xbd,
  0x9c, 0x4d, 0x5c, 0x3e, 0x62, 0x43, 0x6d, 0x3e, 0x20, 0xef, 0x87, 0xbd,
  0x30, 0xad, 0x56, 0x3d, 0xc7, 0x9e, 0x2a, 0x3d, 0x56, 0xe9, 0x25, 0x3e,
  0x2b, 0xd6, 0x01, 0x3d, 0x49, 0x93, 0x8b, 0x3e, 0x96, 0x7d, 0xe4, 0x3d,
  0x2a, 0x7f, 0x78, 0xbd, 0xed, 0xce, 0x6e, 0x3e, 0xeb, 0x5d, 0x15, 0xbc,
  0xa1, 0xe9, 0x57, 0x3e, 0xc1, 0x92, 0x3a, 0x3d, 0xbf, 0x57, 0x81, 0x3e,
  0xfa, 0xb8, 0x25, 0x3e, 0xaa, 0x1a, 0xd2, 0x3d, 0x57, 0x94, 0x6d, 0xbd,
  0x43, 0x84, 0x89, 0x3d, 0x0d, 0xde, 0xfc, 0x3d, 0x38, 0x23, 0x9a, 0xbb,
  0x60, 0x9c, 0x87, 0x3e, 0xd0, 0xf6, 0x05, 0x3d, 0x7e, 0x04, 0xcb, 0x3d,
  0x4b, 0x74, 0x52, 0xbc, 0x14, 0xe5, 0xf0, 0xbd, 0x72, 0x34, 0x1b, 0x3e,
  0x8b, 0xed, 0x87, 0x3d, 0x8d, 0xe5, 0xd8, 0xbd, 0x66, 0x7b, 0x00, 0x3d,
  0x59, 0x61, 0xb7, 0xbd, 0xe4, 0x4a, 0x1d, 0xbe, 0x36, 0xa9, 0x4d, 0xbe,
  0x58, 0xc9, 0x4c, 0x3e, 0xc6, 0x1f, 0x90, 0xbe, 0x92, 0x40, 0x1d, 0xbc,
  0x8f, 0x13, 0xdb, 0x3c, 0x40, 0xca, 0xc5, 0xbe, 0x66, 0xb8, 0x4d, 0xbe,
  0x35, 0xed, 0x7a, 0x3e, 0x1b, 0x27, 0x07, 0xbe, 0xbc, 0xa2, 0x2b, 0xbe,
  0x50, 0xad, 0x08, 0xbe, 0xcd, 0x36, 0x8d, 0xbd, 0xec, 0x90, 0x99, 0x3d,
  0xd2, 0xa3, 0xe3, 0xbc, 0x33, 0xd9, 0xa1, 0xbe, 0x18, 0x53, 0x92, 0xbe,
  0x22, 0xb8, 0xf7, 0x3d, 0x93, 0x11, 0xb3, 0xbd, 0x71, 0xb8, 0xc4, 0xbd,
  0xbe, 0xe5, 0xc7, 0x3d, 0x3e, 0x7e, 0x25, 0xbd, 0x9b, 0x45, 0xda, 0xbd,
  0xbb, 0x58, 0x2a, 0x3e, 0xd9, 0xee, 0x41, 0xbe, 0x02, 0x41, 0xdf, 0x3d,
  0xcb, 0x4f, 0xf6, 0xbc, 0x96, 0xe0, 0xa6, 0x3c, 0xf0, 0x31, 0xe5, 0xbc,
  0x8c, 0xbe, 0x7d, 0xbd, 0x51, 0xf7, 0xf5, 0xbd, 0x28, 0x18, 0xdf, 0x3d,
  0x91, 0x92, 0xe6, 0xbd, 0x58, 0x73, 0x0e, 0xbe, 0xa7, 0x97, 0xbc, 0xbd,
  0x43, 0x0d, 0xd0, 0xbd, 0xdc, 0xb3, 0x0c, 0xbe, 0xb1, 0x61, 0xb6, 0x3d,
  0x65, 0xaa, 0x0b, 0x3e, 0x33, 0x42, 0x30, 0x3c, 0x02, 0xe8, 0xa4, 0xbd,
  0x65, 0xfb, 0x53, 0x3e, 0xd9, 0x5e, 0x41, 0xbe, 0xf7, 0x68, 0x10, 0x3e,
  0xab, 0x57, 0xf8, 0xbc, 0x91, 0x57, 0x08, 0xba, 0x4f, 0x46, 0x40, 0xbc,
  0xbd, 0xba, 0x74, 0x3d, 0x12, 0xf1, 0x48, 0xbe, 0xe1, 0x71, 0x3d, 0xbe,
  0xbf, 0x67, 0x2f, 0x3e, 0x73, 0xfd, 0x13, 0xbe, 0x13, 0x45, 0x27, 0xbb,
  0xd3, 0x2b, 0xb9, 0xbd, 0x0b, 0x9c, 0xe4, 0xbc, 0xed, 0x2b, 0xe3, 0x3d,
  0x2a, 0x44, 0x6d, 0x3e, 0xbc, 0xf9, 0x90, 0xbb, 0x51, 0x64, 0x30, 0xbd,
  0x74, 0x21, 0x09, 0x3e, 0x03, 0x48, 0xc5, 0xbd, 0xff, 0x7c, 0xbb, 0xbc,
  0xba, 0x03, 0x9f, 0xbc, 0xb6, 0xd1, 0x6a, 0xbe, 0xe8, 0xf4, 0x44, 0x3e,
  0xf4, 0x8c, 0xf8, 0x3c, 0xf1, 0xbb, 0x83, 0xbe, 0xc4, 0xf0, 0x54, 0x3d,
  0x6a, 0x2e, 0x46, 0x3e, 0x14, 0xc6, 0x3f, 0xbe, 0xfd, 0xf4, 0x29, 0x3e,
  0xab, 0x4e, 0xfb, 0x3d, 0xb6, 0xcf, 0x4f, 0xbd, 0x1d, 0x4c, 0x07, 0x3e,
  0x61, 0x5c, 0x1d, 0x3c, 0x0a, 0x88, 0x83, 0xbe, 0x0d, 0x05, 0x0f, 0xbe,
  0x95, 0xb3, 0x50, 0x3d, 0x23, 0x41, 0x10, 0xbc, 0x56, 0x02, 0xd2, 0x3d,
  0xb8, 0xa8, 0x20, 0x3e, 0xf5, 0x14, 0x9d, 0xbd, 0x8d, 0x93, 0x03, 0x3e,
  0x0c, 0x44, 0x14, 0x3e, 0xfc, 0xa6, 0xb5, 0xbd, 0x07, 0x57, 0xc9, 0xbd,
  0x67, 0x84, 0x8a, 0xbd, 0x23, 0x27, 0x48, 0x3e, 0x39, 0x82, 0xb4, 0x3d,
  0x15, 0xb0, 0xaa, 0x3d, 0x17, 0x4e, 0x3b, 0x3e, 0x45, 0x33, 0x45, 0x3c,
  0xde, 0x81, 0x7d, 0xbe, 0xb6, 0x62, 0xb7, 0x3e, 0x9f, 0x43, 0x10, 0x3e,
  0x8c, 0x34, 0x0c, 0xbe, 0x24, 0x8b, 0x93, 0x3e, 0x92, 0xf4, 0x27, 0x3e,
  0xaa, 0x2e, 0xd9, 0xbc, 0xdb, 0x6c, 0xdc, 0x3e, 0x15, 0x0c, 0x3f, 0xbd,
  0x8e, 0x41, 0x9b, 0xbd, 0xda, 0xcf, 0xdb, 0x3e, 0x77, 0xb1, 0xcb, 0xbd,
  0x9c, 0x0f, 0x69, 0xbc, 0x02, 0x2a, 0xdd, 0x3d, 0x5f, 0x58, 0x92, 0x3e,
  0xc6, 0xbd, 0x2f, 0x3e, 0x02, 0x9a, 0xa7, 0x3e, 0x1d, 0x40, 0x5b, 0x3b,
  0x15, 0x46, 0x64, 0xbd, 0x03, 0x98, 0x03, 0x3e, 0x63, 0x26, 0xf9, 0x3d,
  0xb2, 0xb8, 0xf8, 0xbb, 0x82, 0x6d, 0xbc, 0x3e, 0xca, 0x73, 0x6a, 0x3d,
  0x1f, 0x5d, 0x35, 0x3e, 0xe2, 0xc6, 0x94, 0x3e, 0x8f, 0x0d, 0x9f, 0x3e,
  0xb9, 0xc2, 0x97, 0x3d, 0xb6, 0x43, 0xb6, 0x3e, 0x58, 0x5e, 0x17, 0x3e,
  0xba, 0x95, 0x19, 0x3e, 0x8a, 0x93, 0x9c, 0x3e, 0x19, 0xde, 0x27, 0x3e,
  0x01, 0x4b, 0x58, 0x3e, 0x68, 0xd2, 0x7b, 0x3e, 0x8a, 0x3f, 0xa1, 0xbb,
  0x5a, 0x53, 0x52, 0x3e, 0xe4, 0xa7, 0xab, 0x3e, 0x63, 0xc4, 0xc5, 0xbd,
  0xa6, 0x60, 0x34, 0x3d, 0x20, 0x2c, 0x90, 0x3e, 0x3b, 0x36, 0x41, 0x3e,
  0x93, 0xd8, 0xf4, 0xbc, 0xc5, 0xcc, 0x8f, 0x3e, 0xda, 0xa1, 0x71, 0xbd,
  0x48, 0xb5, 0x67, 0x3c, 0x0d, 0x5b, 0x2b, 0xbd, 0xfe, 0x3b, 0xee, 0x3d,
  0xa1, 0x16, 0x2e, 0x3e, 0xde, 0x48, 0x20, 0x3e, 0xe7, 0x30, 0x13, 0xbe,
  0x80, 0x83, 0x26, 0xbe, 0xcf, 0x03, 0xe2, 0x3c, 0x49, 0xcd, 0x0d, 0xbe,
  0xa1, 0xb6, 0x08, 0xbe, 0x04, 0x54, 0xd1, 0xba, 0x35, 0xd5, 0x89, 0x3b,
  0x03, 0x15, 0x53, 0xbe, 0x0d, 0x46, 0x79, 0x3e, 0x2b, 0xe6, 0x64, 0xbe,
  0xde, 0x0d, 0x93, 0x3d, 0x3b, 0x50, 0xb2, 0x3e, 0xde, 0x7e, 0x67, 0xbe,
  0x3f, 0xbf, 0x54, 0x3e, 0x3a, 0x0f, 0xee, 0x3d, 0x62, 0x20, 0x0d, 0xbe,
  0x45, 0x45, 0x96, 0x3d, 0x37, 0x3f, 0xc3, 0x3e, 0x13, 0x0c, 0x11, 0x3e,
  0xce, 0xa2, 0x5f, 0x3d, 0xd2, 0x88, 0xac, 0x3e, 0x01, 0x03, 0xab, 0xbd,
  0x30, 0x75, 0x1b, 0xbe, 0x84, 0x07, 0xc2, 0x3e, 0x8a, 0x91, 0xb8, 0x3d,
  0x6f, 0x1f, 0xa2, 0x3d, 0x7a, 0x9a, 0x31, 0x3e, 0x80, 0x99, 0x32, 0x3e,
  0xb5, 0xcf, 0x23, 0xbe, 0x74, 0x06, 0x80, 0x3e, 0x47, 0xa5, 0xf3, 0x3d,
  0xe8, 0xf4, 0x98, 0xbd, 0xf2, 0x1b, 0xe3, 0x3d, 0x5a, 0x61, 0xfb, 0xbd,
  0xc9, 0x39, 0x00, 0x3e, 0xd7, 0x41, 0x91, 0x3e, 0x73, 0xda, 0x29, 0x3e,
  0x4f, 0x3d, 0xb5, 0x3d, 0x9d, 0xfc, 0x21, 0x3e, 0x8c, 0xc4, 0x64, 0x3e,
  0x59, 0xbe, 0x4a, 0x3e, 0x4a, 0x07, 0x69, 0xbd, 0x94, 0x52, 0x87, 0x3d,
  0xcd, 0x89, 0x47, 0x3e, 0xb4, 0x1c, 0xb1, 0xbc, 0xcf, 0x0c, 0xa5, 0xbc,
  0x56, 0x7b, 0x0d, 0x3e, 0x65, 0x25, 0x05, 0xbd, 0x24, 0xb8, 0x18, 0xbc,
  0x31, 0x99, 0x31, 0xbc, 0x7e, 0xb9, 0xc9, 0xbc, 0x56, 0xa2, 0x65, 0xbd,
  0xc8, 0xd5, 0xdc, 0xbd, 0x22, 0xfc, 0x57, 0xbe, 0xfa, 0x07, 0x7c, 0x3c,
  0xec, 0xe2, 0xcf, 0xbc, 0xf1, 0x95, 0x91, 0xbe, 0xd0, 0xfe, 0x11, 0xbe,
  0x11, 0xfc, 0x42, 0xbd, 0x43, 0x2c, 0x1c, 0xbe, 0x52, 0xec, 0x02, 0xbe,
  0xdc, 0xec, 0xcc, 0xbd, 0xc9, 0xfe, 0x19, 0x3c, 0xcb, 0xea, 0x64, 0xbe,
  0xb5, 0xc4, 0x7f, 0x3e, 0x0f, 0x2a, 0x6c, 0xbe, 0xde, 0x80, 0xfa, 0xbd,
  0x47, 0x3b, 0xd7, 0xbd, 0x45, 0x4c, 0x3c, 0xbe, 0x07, 0x40, 0x8f, 0x3d,
  0x4b, 0x07, 0xc8, 0x3d, 0x08, 0x2f, 0x83, 0xbd, 0x52, 0x87, 0x28, 0xbc,
  0x77, 0x92, 0x94, 0x3c, 0x5b, 0xfd, 0xbf, 0x3c, 0x11, 0x5a, 0x84, 0xbe,
  0x1a, 0xee, 0xf0, 0x3c, 0x02, 0x56, 0xed, 0xbd, 0x2f, 0xf1, 0xe6, 0xbc,
  0xf5, 0x32, 0x6a, 0x3d, 0x58, 0x21, 0xf4, 0xbd, 0x44, 0x97, 0x19, 0x3c,
  0xd6, 0x7e, 0xe9, 0x3d, 0xe1, 0x7f, 0x40, 0x3d, 0x24, 0x74, 0xd8, 0x3d,
  0xd9, 0x7f, 0xa9, 0x3d, 0xa1, 0x1c, 0x33, 0xbc, 0x37, 0x94, 0xb6, 0x3d,
  0x7e, 0xde, 0xd7, 0x3c, 0x8b, 0x91, 0x7c, 0xbe, 0x1e, 0x5e, 0x38, 0xbd,
  0x43, 0xf5, 0xdd, 0x3c, 0xb0, 0x4f, 0x72, 0xbe, 0x68, 0x14, 0x36, 0xbd,
  0x3a, 0xeb, 0x3f, 0xbe, 0x5e, 0xe7, 0x82, 0x3b, 0x0c, 0x04, 0x20, 0xbe,
  0x44, 0xf7, 0x7e, 0xbc, 0xce, 0x78, 0x27, 0x3e, 0x65, 0x4f, 0x11, 0xbe,
  0x60, 0xa9, 0x45, 0x3e, 0xcf, 0x00, 0x21, 0x3c, 0x19, 0x4f, 0x20, 0xbe,
  0x4d, 0x90, 0x2c, 0x3e, 0x7a, 0xee, 0x49, 0xbe, 0x85, 0x33, 0x6f, 0xbd,
  0x9b, 0x67, 0x07, 0xbb, 0x6f, 0xf4, 0x2b, 0xbe, 0x3f, 0xac, 0x4f, 0xbe,
  0xb6, 0x67, 0xc6, 0x3d, 0xc2, 0x31, 0x87, 0x3d, 0xe8, 0x72, 0xf2, 0xbd,
  0x20, 0x8e, 0x34, 0xbe, 0xef, 0x77, 0x9c, 0xbd, 0x8c, 0x85, 0xdd, 0x3c,
  0x67, 0x0e, 0x03, 0xbe, 0x1d, 0x1d, 0xb5, 0x3d, 0x82, 0xae, 0xa8, 0x3d,
  0xc8, 0xbc, 0x2b, 0xbe, 0x6f, 0xc4, 0xb4, 0x3d, 0x70, 0x64, 0x89, 0xbd,
  0x46, 0xd9, 0xdb, 0x3d, 0x0d, 0x69, 0xaa, 0xbd, 0xcb, 0x30, 0x3a, 0x3e,
  0xb6, 0x64, 0x25, 0x3e, 0xc4, 0x8e, 0x2f, 0x3d, 0xa1, 0x4f, 0x33, 0xbe,
  0x17, 0x8c, 0xa6, 0xbd, 0x0c, 0x6a, 0xb8, 0x3d, 0xf6, 0xc5, 0xc4, 0xbd,
  0x4f, 0xc6, 0xce, 0xbc, 0x64, 0x17, 0x8d, 0x3d, 0x59, 0x19, 0xc6, 0x3d,
  0xe9, 0xe0, 0x4e, 0xbe, 0x15, 0x0b, 0xf3, 0x3d, 0x19, 0x94, 0x0a, 0xbe,
  0x47, 0xec, 0xf4, 0xbd, 0x1a, 0x7e, 0x84, 0xbc, 0xde, 0x20, 0xc6, 0x3d,
  0xf4, 0xd6, 0x3a, 0x3d, 0x76, 0x31, 0x42, 0xba, 0x02, 0x76, 0x81, 0x3d,
  0x66, 0xc1, 0x41, 0x3e, 0xda, 0x05, 0xc3, 0x3d, 0x84, 0x53, 0xa0, 0x3d,
  0x4f, 0x24, 0x2e, 0x3e, 0x64, 0x67, 0xc3, 0xbd, 0x90, 0xa7, 0xe0, 0xbd,
  0x05, 0xc2, 0x45, 0xbe, 0xb2, 0x46, 0xfb, 0x3d, 0x58, 0x75, 0xec, 0x3d,
  0x66, 0x3a, 0xcc, 0xbc, 0x1b, 0x9d, 0x39, 0x3e, 0x4b, 0xae, 0x91, 0xbd,
  0xd4, 0x1f, 0x19, 0xbd, 0xcb, 0xb0, 0x2e, 0xbe, 0xad, 0x4e, 0x45, 0xbe,
  0x26, 0xd8, 0xee, 0x3d, 0x42, 0xa7, 0xba, 0x3d, 0x48, 0x10, 0x6c, 0x3d,
  0xac, 0x69, 0x3f, 0xbe, 0xcc, 0x92, 0x09, 0x3e, 0x1f, 0xde, 0x51, 0xbd,
  0x88, 0x9b, 0x20, 0x3e, 0x60, 0xde, 0xca, 0x3c, 0x16, 0x81, 0xf0, 0xbd,
  0x44, 0x9f, 0x18, 0x3e, 0x53, 0xa3, 0x39, 0x3e, 0xab, 0xa1, 0x16, 0xbe,
  0x66, 0x00, 0x22, 0x3e, 0xa4, 0x18, 0x18, 0xbd, 0x11, 0xa4, 0xf8, 0x3d,
  0x8e, 0x5a, 0x14, 0x3e, 0x3b, 0x30, 0x07, 0x3e, 0x32, 0xf2, 0xca, 0xbd,
  0x87, 0xb3, 0xec, 0xbc, 0xca, 0x72, 0x8c, 0x3d, 0xee, 0x76, 0x01, 0x3e,
  0x3f, 0xbc, 0x50, 0xbe, 0x94, 0x4b, 0x52, 0xbe, 0x75, 0x60, 0x59, 0x3d,
  0xb3, 0xe3, 0xde, 0x3d, 0x0c, 0x7b, 0x3c, 0x3b, 0x0e, 0x4a, 0x15, 0xbe,
  0x6c, 0xcc, 0x8a, 0x3d, 0xc3, 0xda, 0x9a, 0xbd, 0xd1, 0x91, 0x0e, 0x3e,
  0x74, 0x30, 0xc6, 0x3d, 0x95, 0xb8, 0x88, 0xbd, 0x43, 0xbd, 0x3e, 0x3e,
  0x14, 0x09, 0x14, 0xbe, 0xa7, 0xcf, 0x4a, 0xbe, 0x65, 0x99, 0x4a, 0xbe,
  0x20, 0x67, 0x24, 0x3a, 0x55, 0x92, 0x22, 0x3d, 0xf5, 0x6c, 0x20, 0x3d,
  0x1a, 0x95, 0xb7, 0x3d, 0x50, 0x3d, 0x7f, 0xbc, 0xe8, 0x94, 0xc2, 0x3d,
  0xc4, 0x50, 0x3d, 0x3d, 0x20, 0xd7, 0x68, 0xbc, 0xf2, 0x4c, 0x40, 0xbe,
  0x60, 0x44, 0xc6, 0xbd, 0xe0, 0xde, 0xf8, 0xbb, 0x88, 0x0c, 0xfc, 0x3c,
  0x78, 0x40, 0x6b, 0x3d, 0x12, 0x24, 0x07, 0xbe, 0xa0, 0x81, 0x2b, 0xbe,
  0x8e, 0x33, 0xe1, 0xbd, 0xcc, 0xc5, 0x2f, 0x3e, 0x56, 0xe3, 0x34, 0x3e,
  0x5d, 0xca, 0xc3, 0xbd, 0x28, 0x79, 0x02, 0x3d, 0x32, 0x73, 0x06, 0xbe,
  0x08, 0x3c, 0x92, 0xbc, 0x84, 0x2c, 0x41, 0x3d, 0x58, 0xac, 0x47, 0xbe,
  0xd6, 0xb4, 0x13, 0x3e, 0x5c, 0x9e, 0xfb, 0x3d, 0x82, 0xa8, 0x2e, 0x3e,
  0x9b, 0x96, 0x38, 0xbe, 0xed, 0x47, 0x14, 0xbe, 0x60, 0x30, 0x02, 0x3d,
  0x88, 0xd9, 0xb8, 0xbc, 0xd6, 0xd3, 0x48, 0xbe, 0xc8, 0x23, 0xf5, 0xbc,
  0x44, 0xfe, 0x7d, 0xbd, 0xf0, 0xc9, 0x32, 0xbd, 0xa4, 0xfd, 0x2e, 0xbd,
  0x14, 0x4f, 0xb7, 0x3d, 0x24, 0x13, 0x5a, 0xbd, 0xa0, 0x71, 0x1a, 0x3d,
  0xcc, 0x21, 0x3a, 0x3e, 0x5c, 0x8c, 0x14, 0xbe, 0x54, 0x23, 0xee, 0x3d,
  0x38, 0xe2, 0xf1, 0xbc, 0x60, 0x8a, 0xba, 0xbd, 0xce, 0x57, 0xd5, 0xbd,
  0x78, 0xc5, 0x2e, 0xbe, 0xb8, 0x81, 0xfc, 0x3c, 0x34, 0xc1, 0xcb, 0x3d,
  0x8c, 0x5a, 0x2e, 0xbd, 0xc8, 0x01, 0x0d, 0x3e, 0x80, 0xb2, 0xc8, 0x3b,
  0x00, 0x83, 0x26, 0xbd, 0x28, 0x2f, 0x4a, 0x3e, 0x5c, 0x3b, 0xdf, 0x3d,
  0xc0, 0x52, 0x56, 0xbd, 0x7a, 0xd2, 0x4a, 0xbe, 0x54, 0xf4, 0x41, 0xbe,
  0x78, 0x92, 0x81, 0xbc, 0x0c, 0xff, 0xb0, 0x3d, 0x8c, 0xd6, 0x8c, 0x3d,
  0x84, 0x45, 0x02, 0x3d, 0x21, 0x3a, 0x1f, 0xbe, 0xdc, 0x37, 0x38, 0x3e,
  0xb0, 0x24, 0xad, 0xbd, 0x36, 0x85, 0x1d, 0x3e, 0xb6, 0x69, 0x1b, 0x3e,
  0x68, 0x6a, 0xa9, 0x3d, 0xee, 0xf0, 0xb8, 0xbd, 0x7c, 0x97, 0xa3, 0x3d,
  0x72, 0xfd, 0x8a, 0xbd, 0x0c, 0xcb, 0x22, 0x3e, 0x56, 0x88, 0x39, 0x3e,
  0xe7, 0xa4, 0x40, 0xbe, 0x14, 0xfa, 0x50, 0xbd, 0xb9, 0x32, 0x1b, 0xbe,
  0xa7, 0xda, 0xa6, 0xbd, 0x20, 0x43, 0xc5, 0x3d, 0x70, 0x17, 0x8a, 0x3c,
  0x44, 0x24, 0xb2, 0xbd, 0x3c, 0x59, 0x06, 0x3e, 0xdc, 0xa2, 0x8c, 0xbd,
  0x38, 0x37, 0xfc, 0x3c, 0xfc, 0xfe, 0xee, 0xbd, 0xca, 0x7d, 0xbf, 0xbd,
  0xe8, 0x09, 0xb2, 0x3d, 0x7e, 0x64, 0x0f, 0xbe, 0xc8, 0x64, 0x2b, 0x3d,
  0x40, 0x1d, 0x8b, 0xbc, 0x34, 0xbe, 0x08, 0x3d, 0xa6, 0x20, 0x16, 0x3e,
  0x18, 0xcd, 0x80, 0x3d, 0x70, 0xee, 0xe0, 0xbc, 0x50, 0xce, 0xfc, 0x3d,
  0x30, 0x69, 0x34, 0xbe, 0xe2, 0xd7, 0x42, 0xbe, 0xe6, 0x35, 0x32, 0x3e,
  0x29, 0x5f, 0xdc, 0xbd, 0x1c, 0x8b, 0x40, 0x3d, 0xd0, 0x7f, 0x21, 0x3e,
  0x00, 0x7f, 0x46, 0x3b, 0x0a, 0x95, 0x45, 0x3e, 0xb8, 0x90, 0x8c, 0xbe,
  0xc3, 0xf3, 0xdc, 0xbd, 0x83, 0x49, 0xbd, 0x3c, 0xdb, 0xb4, 0x19, 0xbe,
  0x14, 0x77, 0xce, 0x3d, 0xe1, 0x06, 0x35, 0x3e, 0x0a, 0xe4, 0x80, 0xbe,
  0xc5, 0xc9, 0xc2, 0xbd, 0x78, 0xb2, 0x1c, 0x3e, 0x66, 0xfa, 0x42, 0xbe,
  0x34, 0xf1, 0x49, 0x3e, 0x8f, 0xad, 0xcf, 0x3e, 0xf5, 0xb4, 0x30, 0x3d,
  0x99, 0xf9, 0x42, 0xbd, 0x7e, 0x9d, 0x44, 0x3d, 0xe3, 0xe7, 0x0a, 0x3e,
  0x26, 0x23, 0x26, 0x3e, 0x0e, 0xa3, 0xeb, 0x3c, 0xe3, 0x8b, 0xa9, 0xbd,
  0xc9, 0x76, 0x18, 0x3e, 0xb7, 0x36, 0x98, 0x3e, 0xf9, 0xcc, 0xaf, 0xbd,
  0x7b, 0x49, 0xb5, 0x3d, 0x56, 0xfe, 0xab, 0x3e, 0x65, 0x15, 0x86, 0x3d,
  0xfb, 0x6c, 0xea, 0xbd, 0xe1, 0x63, 0x69, 0x3b, 0xff, 0x13, 0xd7, 0xbd,
  0x42, 0x5d, 0x14, 0x3e, 0x21, 0x5f, 0x80, 0x3e, 0x86, 0x63, 0xe5, 0x3d,
  0xd2, 0xdc, 0x20, 0x3e, 0x28, 0xec, 0x57, 0x3e, 0x0f, 0xa3, 0x7c, 0x3e,
  0x8c, 0x86, 0x5f, 0x3e, 0x5e, 0xd1, 0x07, 0xbd, 0x0a, 0x83, 0x85, 0xbc,
  0xd6, 0xb5, 0x91, 0x3c, 0x6c, 0x17, 0xce, 0x3d, 0x5c, 0x7c, 0x83, 0x3c,
  0x4b, 0x88, 0x62, 0x3e, 0x3d, 0x8c, 0xa6, 0xbe, 0x1d, 0xee, 0x2d, 0xbe,
  0x23, 0x92, 0x99, 0x3e, 0x98, 0x9c, 0xf1, 0xbd, 0xff, 0x6e, 0xdc, 0xbc,
  0x6b, 0xe8, 0x57, 0x3e, 0x2c, 0x07, 0x42, 0xbd, 0x10, 0xb8, 0x90, 0xbd,
  0x62, 0x5e, 0x0b, 0x3e, 0x0d, 0xd5, 0x1e, 0xbe, 0x96, 0x20, 0x26, 0xbd,
  0x9e, 0xc1, 0xc8, 0x3c, 0x62, 0x14, 0x8e, 0xbe, 0x2f, 0xa8, 0xf8, 0xbc,
  0xe1, 0xc2, 0x8d, 0xbd, 0x07, 0x42, 0x56, 0xbe, 0x0d, 0x8a, 0x86, 0x3c,
  0xee, 0x7c, 0x4c, 0x3e, 0x9c, 0x35, 0x71, 0xbe, 0xf1, 0xdb, 0x36, 0xbe,
  0x6a, 0xf1, 0xed, 0xbd, 0x59, 0x16, 0x4f, 0xbe, 0xd9, 0x48, 0x82, 0xbe,
  0xf1, 0x35, 0xb3, 0x3d, 0x23, 0xd6, 0x56, 0xbe, 0x39, 0x13, 0x5d, 0xbd,
  0x46, 0x51, 0x34, 0x3e, 0xb2, 0x48, 0x5f, 0xbc, 0x0b, 0x81, 0x86, 0xbe,
  0x67, 0x1e, 0xda, 0x3d, 0x22, 0x28, 0x6a, 0xbc, 0x6a, 0xbc, 0xfe, 0x3d,
  0x71, 0xf0, 0x53, 0xbd, 0xf9, 0x88, 0xa1, 0x3b, 0xf4, 0x30, 0xee, 0xbc,
  0x2e, 0xe6, 0x7f, 0x3d, 0xa5, 0xdf, 0x7b, 0xbe, 0x0e, 0x94, 0x0b, 0xbe,
  0xbb, 0xda, 0x81, 0xbb, 0x8b, 0x68, 0xe0, 0x3d, 0x46, 0xd6, 0xd8, 0x3d,
  0xab, 0x6f, 0xd5, 0x3d, 0xfc, 0x26, 0xc0, 0xbd, 0xea, 0x17, 0xb4, 0xbd,
  0x5a, 0xc5, 0x2a, 0x3d, 0x2c, 0xc0, 0xc8, 0x3d, 0x62, 0xcd, 0x54, 0xbc,
  0xb7, 0x76, 0xe9, 0xbd, 0x26, 0xb4, 0xf7, 0x3c, 0xea, 0xf0, 0x1b, 0xbe,
  0x5f, 0x2c, 0x6d, 0x3d, 0x5a, 0x62, 0xb8, 0xbd, 0x52, 0x7e, 0x38, 0x3e,
  0x86, 0x2e, 0xf7, 0xbd, 0x53, 0x63, 0xcc, 0xbc, 0x66, 0xa4, 0xea, 0xbd,
  0xf3, 0x30, 0x17, 0x3e, 0xd2, 0x1e, 0x0d, 0x3e, 0xac, 0x65, 0x4a, 0xbe,
  0x08, 0x9a, 0x21, 0x3e, 0x63, 0x2e, 0xe8, 0xbc, 0x46, 0x3a, 0xbc, 0xbd,
  0x61, 0xf3, 0x3f, 0x3e, 0x31, 0x7f, 0x51, 0x3d, 0xcb, 0x3b, 0x12, 0xbe,
  0x21, 0x55, 0xf5, 0xbc, 0x74, 0x6c, 0xeb, 0x3d, 0x92, 0x93, 0x5d, 0x3d,
  0xeb, 0x8d, 0xa8, 0x3d, 0x5c, 0x7a, 0x98, 0xbd, 0x8a, 0x12, 0x44, 0x3e,
  0x79, 0xe0, 0x81, 0x3e, 0x0d, 0xe9, 0xb6, 0xbd, 0xbe, 0x1a, 0x21, 0x3e,
  0x86, 0xc6, 0x18, 0xbc, 0x57, 0xc2, 0x3d, 0xbe, 0x9f, 0x25, 0x17, 0xbe,
  0x46, 0x56, 0x6c, 0x3e, 0x74, 0xc0, 0x6a, 0x3d, 0x82, 0xd9, 0x6e, 0x3d,
  0xf6, 0x1f, 0x5b, 0x3e, 0x5b, 0xa7, 0x7b, 0xbe, 0x6f, 0x13, 0x00, 0xbe,
  0x70, 0xc7, 0xf2, 0x3d, 0x6d, 0xf6, 0xf8, 0x3d, 0x88, 0x8f, 0x09, 0x3e,
  0x7c, 0x42, 0x00, 0x3e, 0xe9, 0x6a, 0x1f, 0xbe, 0x09, 0x80, 0x00, 0xbe,
  0x27, 0x5a, 0x6c, 0x3e, 0x75, 0xa4, 0x84, 0xbe, 0xc9, 0x19, 0xc3, 0xbd,
  0x8a, 0x5f, 0x51, 0x3e, 0x97, 0xd6, 0x1d, 0xbd, 0xcb, 0x07, 0xbe, 0xbd,
  0x6c, 0x27, 0x5c, 0x3e, 0x0e, 0x06, 0x28, 0x3e, 0x1e, 0xa5, 0x82, 0x3e,
  0x09, 0x50, 0xd2, 0xbc, 0x0a, 0x3e, 0x13, 0x3e, 0xfa, 0x16, 0x81, 0x3e,
  0xe1, 0x61, 0x29, 0xbe, 0x18, 0x89, 0x2a, 0x3e, 0x58, 0x76, 0x11, 0x3d,
  0xc7, 0x78, 0x18, 0x3e, 0xe7, 0x9a, 0x1c, 0xbe, 0xde, 0x5d, 0xdc, 0x3c,
  0x1a, 0x83, 0x0a, 0x3e, 0xa2, 0x21, 0xa5, 0xbd, 0xe1, 0x2f, 0x65, 0x3e,
